[PAD]
[UNK]
[CLS]
[SEP]
[MASK]
,
.
##.
##,
có
là
và
của
cho
không
n
được
ch
đã
bạn
##i
##h
trong
##n
với
một
người
hàng
các
đ
"
khi
này
##m
l
thì
để
k
cũng
##c
m
giá
những
ở
ra
đó
như
mình
công
##y
##g
b
thể
lại
th
shop
mà
sẽ
chỉ
còn
T
vào
ng
về
##/
##ng
phải
làm
B
đến
h
từ
nhiều
d
năm
##!
tại
bị
##o
(
##t
tôi
v
1
đi
nhà
c
trên
hơn
##a
thành
ngày
đơn
nhận
anh
con
đầu
sau
Đ
dụng
nhưng
số
s
##?
##ôi
Shop
Ch
sự
ko
##-
qua
mới
x
trước
nên
thời
##ị
nhất
ông
đánh
việc
2
đồng
ạ
thế
##ào
rồi
biết
hình
hiện
##u
gia
r
C
)
em
ph
cả
rất
nào
ơ
M
hay
gì
nói
tr
##p
cầu
mua
đây
##)
H
t
đang
động
vậy
:
vì
quan
thấy
nước
g
lên
Th
thủ
##:
V
ảnh
Nam
định
##ạn
nhân
vẫn
điều
khác
đội
đá
ý
sao
cao
Việt
chính
nay
cơ
chưa
gửi
gian
-
quá
##hé
tiền
học
cùng
cái
sử
máy
theo
hai
họ
##nh
sản
giao
phẩm
3
##0
bóng
gi
##ẻ
hợp
do
trường
tới
cách
yêu
bộ
giải
giảm
thông
tin
##ư
e
đặt
##L
tình
##N
thu
vừa
sinh
kết
hành
trận
điểm
##ha
tư
lý
viên
D
cảm
##âu
cần
phát
giờ
tiếp
ta
thực
thi
N
lần
dùng
đối
##ấy
##7
hộ
tự
năng
10
cô
tốt
##ạ
xem
xe
S
##ứ
độ
bao
khu
tháng
nó
##ên
bằng
ăn
muốn
bên
lớn
##ô
G
bán
tâm
mặt
##ắc
L
tính
lượng
xuất
##ê
K
giúp
vụ
đấu
##k
nhiên
nữa
trình
thường
tế
nếu
mã
tay
khách
Anh
rằng
cuộc
toàn
chúng
tài
4
##ừng
##ã
5
bàn
tuổi
bảo
hết
##T
hội
##6
giới
dân
màu
chi
bản
chuyển
đường
Cá
luôn
thứ
phần
trọng
điện
cấp
khó
chủ
nhau
##à
Quốc
nghiệp
thắng
xin
##ch
tăng
dự
sống
vị
hệ
ai
triệu
thêm
Trong
chức
##5
áp
quả
kinh
##ả
##20
ấy
ban
lực
tạo
##V
khá
##ỏ
loại
báo
chơi
##ối
đều
vô
trở
mẹ
cư
diễn
đề
liên
##"
Trung
trẻ
lấy
minh
thương
##ơ
##ết
co
thị
cá
gần
lúc
bố
##ắm
chất
tỷ
va
đúng
##ờ
hiệu
chú
##hi
##r
hoặc
##3
Tuy
so
thật
##ân
chọn
thay
##9
đưa
thiết
ngoài
##êu
thích
vợ
bé
tìm
bình
a
đình
tác
mạnh
##ỗi
chiến
đổi
Theo
Hà
ủng
##ắn
quyết
đại
R
Mỹ
quốc
##e
##000
bất
doanh
##ản
tập
trung
ki
đẹp
bắt
sĩ
khoảng
?
Ng
##8
##ở
phòng
trang
##H
hỏi
vấn
##ho
án
##2
##M
##ật
vi
cứ
chồng
ca
thống
mang
sáng
##ấn
mất
6
ngay
chiếc
phí
bỏ
tra
##ủ
Nếu
sân
nữ
chu
hoàn
thân
nghĩ
tiêu
an
từng
##ưu
lời
tục
##úc
khiến
gặp
sức
tiếng
chuyện
ty
Công
tích
##ạt
mọi
biệt
cổ
chung
bà
xác
Có
bệnh
##ống
hạn
dù
cố
nhỏ
%
gọi
trị
Ph
thức
##18
đủ
##ỡ
##àn
##ận
đạo
##ụ
tham
la
vệ
##ài
##ất
sư
tiên
triển
mỗi
dẫn
##ấm
##ình
ghi
tổ
##ây
##ỉ
kế
##C
X
##ợ
##ấu
phụ
mi
vòng
gái
tên
địa
##1
trả
Các
trí
phục
cuối
dịch
phương
hiểu
vận
##B
##ắp
Nguyễn
Sau
kiến
ba
lo
Nhưng
ứng
sở
ti
Qu
kỳ
thua
##ù
cảnh
chuyên
##ế
7
mẫu
mức
ít
mắt
nhanh
dài
chí
hoạt
lòng
chia
đồ
##ầm
Một
trợ
hôm
gây
chế
pháp
thoại
sát
bay
nghệ
quyền
mùa
giữa
chân
hi
xã
u
##ồi
Bộ
##ệt
##s
##àng
hóa
##òn
##âm
vực
quân
lập
đa
##U
ho
Ông
nhìn
đất
Không
thanh
chứng
quy
##hu
diện
đặc
đời
xa
giữ
y
vui
ok
##4
trưởng
nhập
##ời
da
sang
nổi
đáng
##Đ
Nội
vàng
Khi
khả
##ải
##ện
kiểm
tiết
##ắng
cứu
thuật
nơi
danh
kiện
nghe
tượng
tranh
##ền
áo
##ại
!
##ỗ
tương
bác
giả
biến
cu
hang
lợi
dễ
huy
##ần
##ăng
bởi
##ùng
##ú
tất
phân
size
phim
##I
8
chạy
Văn
may
xuống
##ến
20
màn
đàn
##ự
vật
kể
cha
tinh
##ông
giống
cáo
rõ
thuộc
tuyển
yếu
##on
;
mặc
##ăm
tỉnh
bài
câu
phố
##A
mở
truyền
lâu
trai
liệu
##ong
hướng
già
##ệ
càng
đôi
cửa
##ó
TP
nguyên
chẳng
nam
##he
vọng
tiến
địch
văn
Nga
##(
cụ
chịu
tuần
chuẩn
khí
xử
Hàn
sách
o
##êm
##ơi
khai
##ẹ
dựng
nhiệm
dưới
Minh
đạt
bu
phía
tối
mon
nội
Thái
tổng
tố
sắc
xây
cạnh
##ơn
30
tử
##G
##ứa
qu
Những
##ổ
hỗ
má
hoa
căn
di
lịch
##ớ
trái
cung
vài
phong
dung
bi
##ới
##ễn
nghiệm
gh
duy
hưởng
tưởng
phút
mạng
Người
Đức
##ca
môn
##S
##ãi
nhớ
##ử
khoa
nguy
dành
biểu
ma
Bình
Với
kỹ
USD
riêng
##án
lệ
##x
à
thần
hãng
##ọ
lá
chương
phạm
đoàn
viện
sai
Đây
##è
ký
Thanh
trò
hòa
lộ
##ắt
##l
12
##ợi
##ương
##ốt
vốn
đứng
ship
mục
kiếm
hậu
thiếu
##ố
##%
##ẽ
##phone
##ồn
##kg
tàu
9
##ẳng
ô
##ạc
chiều
dá
rộng
##ụp
hồ
##v
đầy
giáo
nặng
##ạch
hồi
đóng
trực
đỏ
biển
##ơng
##ặt
tu
##ậm
Chi
quản
khỏi
ngoại
tỏ
hữu
##ập
phản
đen
đăng
châu
##ém
##ẩn
sớm
xanh
##ồng
luật
Nhật
##ũ
Hải
nghị
cực
##d
Và
phủ
sợ
nhạc
khăn
15
##ộ
bảng
##ò
du
dà
##ôn
tấn
khoản
##ậ
nằm
##â
fan
kg
i
##ùi
quê
Nhà
gồm
##ánh
Real
phá
##ữa
vùng
Trước
HC
nạn
nghĩa
đo
mu
phép
Vì
Lan
##ầy
nhóm
'
Bar
chấp
thử
trắng
ngôi
Á
Đông
kiểu
trạng
nguồn
tầm
##D
xảy
lai
thư
##an
##ục
##ề
tú
dòng
luận
Thị
##ềm
ngân
thất
##ực
đông
##áu
##ột
##ấp
sơ
coi
Ngoài
nghi
Hoàng
ah
nhờ
đảm
vượt
##ạnh
cây
xét
##un
##ảm
chết
##ếp
11
vai
âm
##ức
##ường
độc
##ọn
hạng
##é
trách
Hi
##ưng
##óc
Đại
##ạo
Chính
Messi
phiên
Tu
tai
đoạn
quý
A
##hì
hôn
Mo
hu
phi
thấp
##ọc
##ì
Tổng
Vi
lưu
viết
đau
##ỏng
##áy
50
quay
Tại
hủy
kỷ
chỗ
to
ngờ
hơi
Từ
quần
Tây
chống
kê
##đ
##ằng
mộ
100
lẽ
góp
##ún
toán
ổn
đêm
##á
đô
khẩu
đọc
##P
nghỉ
ha
bước
ngành
##b
##òi
Gia
cũ
Ban
Thế
##èo
Nó
hoạch
tội
lu
giành
tịch
##ái
##ảng
An
##ếc
##ứt
Năm
huyện
ni
##ạm
phiếu
##ói
Chỉ
tín
trời
Ả
xúc
kéo
Em
mai
thuốc
##ợt
##ớt
suy
Ki
cộng
Lê
cầm
Man
cậu
tức
suất
nâng
##ộn
##ác
##ăn
Do
lựa
##K
Chúng
Thành
đảo
lớp
tướng
Là
Dương
##ảy
tuyệt
dục
phù
siêu
Để
giám
Sơn
##ừa
##ặp
món
nghiên
cân
##ốn
##ệm
thiện
đốc
lãnh
##X
bại
tù
quen
Ngọc
Ở
na
Điều
hạ
hiểm
Bắc
##'
nền
##ẩm
Bản
nhằm
buổi
##ỹ
16
pin
kích
Hiện
mau
##èm
##ũng
á
iPhone
##ể
sửa
Apple
lượt
mô
##O
lao
nhẹ
tải
giản
##í
Si
##ứng
##yên
tiện
Chủ
##ển
lễ
giác
thái
Trần
tốc
##áng
xếp
##ảo
hát
##F
xứ
##ếu
##Q
bổ
bức
##ưới
##ội
Pháp
quận
Cô
2014
Bà
##00
Đồng
ưu
lạc
##en
##há
hút
##èn
##NG
sú
hài
sâu
tặng
Ngày
tận
can
##10
luyện
##ầu
##ồ
vua
##ậu
Chu
Lu
só
cam
Mu
sẵn
dây
đổ
nuôi
vũ
Thu
Họ
tránh
Hoa
##E
thúc
Du
lương
I
thưởng
gắng
thiên
lĩnh
ak
hại
bá
xuyên
chiếm
Hai
18
cánh
cải
suốt
Q
##át
game
1370
ấn
tôn
quanh
phối
tá
##j
Tư
Long
thuận
##tr
Ho
2013
##ều
bầu
Nhiều
bạc
Cho
E
cử
sp
Sao
1479
CL
1367
##ua
thừa
P
thẳng
trải
##ẫn
Như
tuy
##ND
##áo
25
Âu
Cup
niên
14
đáp
đem
dạng
##12
môi
dưỡng
...
Thủ
##ốc
##úp
nhiệt
dấu
buộc
##ớp
13
##ỏa
Liên
thậm
í
NH
chữa
##ính
kẻ
##ược
##ệnh
thao
##ợn
##õ
Y
làng
Trường
##ữ
đẩy
##ước
##ép
mối
tuyên
dầu
chỉnh
Con
khắc
##út
##han
thơ
thác
dat
kính
##hắc
##in
van
nhật
##ệu
roi
##ón
##ă
thú
Phó
mại
cấu
nối
##hị
tuyến
khởi
nghề
##ý
tri
Phú
tung
trao
##ãn
Việc
Quang
máu
##14
Cũng
##ẫu
Di
Hội
##ờng
hy
than
gắn
Bi
tòa
nổ
Linh
đương
tó
##ạp
##ai
Samsung
Phương
cai
đào
quán
giấy
trú
chữ
Đến
Châu
Đà
soát
##ỷ
Nha
##ượng
40
##oa
dần
Hu
Xuân
24
##yến
Huy
tầng
z
ly
rút
17
##ếm
rơi
nghiêm
##th
mật
trì
ngang
##ễ
Ok
tả
kim
##ẳ
khảo
tạm
Ko
lửa
de
ngắn
Kim
##Y
mềm
chóng
cập
hấp
Hồ
tim
khủng
League
chuyến
ư
giai
thăm
khúc
La
song
##ĩ
Chelsea
đỡ
ngược
nửa
ràng
đoán
U
bề
##oi
lục
sendo
Vũ
biên
đẳng
##R
##ãng
To
trừ
ấ
cắt
19
ước
trụ
Ba
1477
##uo
##ét
bánh
##iá
khô
dạy
binh
##em
Hồng
khối
j
rá
ánh
Mai
hồng
ru
Má
smart
đe
rời
phổ
thí
##30
liền
F
cường
tái
dâ
##11
duo
tan
gà
đích
##co
mời
phóng
Ti
miền
##À
loạt
lan
Độ
21
##ặng
Phi
nông
Vân
##ặ
hiệp
camera
22
##ẹp
linh
Sự
bày
Nguyên
the
sung
60
##ệp
Về
ke
thai
hầu
Quảng
video
thụ
su
Ronaldo
Hòa
The
Tiến
cận
xung
##yền
họa
gu
ngăn
##ẩ
thiệt
##le
##óm
hạt
sóng
##ọng
##er
Thời
##ọt
Tân
đột
Phạm
C1
##õi
phán
thủy
##19
thịt
lẫn
phận
họp
Xi
23
nét
in
thoát
gốc
hè
Bảo
băng
niệm
hoàng
CH
##ểu
al
##w
Giang
khóa
thù
hải
+
##ưởng
bí
150
quảng
##50
thảo
tiểu
##hen
0
Malaysia
bo
Đội
Park
##ẫ
dữ
Sở
cứng
##ựu
Hương
go
Ai
mưa
chiếu
é
Arsenal
Thông
đỉnh
##ùa
bọ
City
Giám
Trên
##ót
nắm
Sa
28
Lý
vs
gió
Na
phê
ro
toi
chặn
xưa
che
26
27
tre
Li
##ĩnh
##z
thuyết
Điện
##Á
on
2012
tắc
200
Hạ
tồn
sông
nin
Phòng
Co
##ỳnh
Lâm
##+
Liverpool
##hie
hương
đuổi
Galaxy
##15
ống
Trang
kì
truy
##ướng
##ín
ả
phường
li
##òng
moi
thiệu
lệnh
kịch
dựa
Nhân
Kinh
nhiễm
Mi
##op
Cơ
M1
thổ
Android
##ẵ
CR
##kh
no
liệt
Tha
##hung
von
chứa
thước
dụ
UB
ao
Ukraine
cuốn
Ha
võ
World
##hong
Kỳ
don
ga
bốn
chó
Ninh
lay
lược
##ặc
Sá
29
O
đài
##yết
inch
500
##ba
se
quang
tỉ
##ười
Pe
##ar
Qua
Ngô
huấn
Mặc
phái
tộc
bụng
##200
2015
Ca
Cầu
##ưỡng
thánh
dậy
Tiền
tạp
Cục
90
##;
Khánh
ngôn
Z
Al
70
##70
Chí
tha
##úa
Ne
Đình
##hã
khắp
dao
##Ư
##ụng
##ám
Vào
Khu
sa
â
Champions
núi
né
Ấn
Cu
Tiên
bang
##AG
##ấ
trồng
##ượu
ngữ
##cm
##ểm
ví
##65
top
##hoe
##2013
gỗ
##ym
trùng
Hiệp
Mon
mạch
HD
dương
Fan
Quân
##hop
si
tàn
##99
mũi
##ia
##et
voi
Cách
Tra
ương
trích
Xu
bò
Note
Hy
##com
##àu
hổ
khiển
##NH
Hưng
hùng
##16
Thiên
##Ạ
tán
Đầu
sam
Phong
Sài
Đặc
bậc
Ủy
tròn
bắn
cờ
ná
##ạng
##ít
MC
mac
vĩ
Cuộc
Bu
Facebook
cup
km
80
bờ
Giải
thôn
đền
##yen
##ph
đế
trưng
2016
loài
cỏ
san
Ý
35
bào
Vie
##sh
trúc
dau
Cảnh
Đào
2000
súng
##éo
sim
TV
tắt
Su
##ườn
din
sắt
##bo
he
2011
ngọt
##ổi
Trọng
giết
vin
##24
CP
ung
Madrid
##ích
New
dan
Thủy
So
ẩ
32
##am
##vi
1425
loạn
thập
Lo
tí
nua
quỹ
phó
Tri
chip
Hay
##55
##ve
ủy
##&
##27
Gòn
Ut
##ão
##ta
Chiến
Tập
Phan
##la
mó
Cao
tây
Sony
Ju
doi
##hiu
31
hon
##23
##25
man
Tổ
##urin
##dt
300
09
##Ô
SH
hin
W
LG
&
rừng
##45
ẩm
Ta
điển
45
Hữu
Hóa
non
web
##do
##17
##HC
Cuối
cm
##press
Phúc
free
Mã
Đan
WC
Bayern
dọa
vây
chảy
den
Bồ
##60
Bí
2018
Da
ố
IP
kháng
##ịch
Nữ
##ka
Đô
pen
son
PS
app
ve
##xel
Biên
Đảng
##13
Google
##W
vo
nt
kênh
noi
##22
nu
Brazil
ben
Quan
##OS
Vương
Viện
be
Vu
Ra
day
2010
thăng
não
##35
Nghệ
Yên
xương
Trương
bãi
##vn
##ìm
55
Nokia
hoang
##ộc
##f
##áp
Tá
thượng
Hậu
hk
Argentina
f
Giáo
Đài
##ổng
há
hag
##80
Vĩnh
Định
##si
lau
##bank
##66
Australia
Nadal
trấn
p
Chương
sứ
Hồi
##hone
##ie
##na
##uy
Triều
U23
Khoa
At
Zi
ngựa
Loan
##ty
chan
##97
Singapore
##bi
set
##21
trào
Ga
##oan
##us
May
##58
Van
##26
trữ
Po
săn
tien
gan
##36
##33
##ung
dt
##71
ổ
##gi
hl
Phần
##28
Thụy
show
David
##ừ
bão
J
Đoàn
##hí
GB
##ách
Tú
Học
Ô
Liga
1000
##sung
clip
Bài
lâm
thuyền
ứ
Tháng
đĩa
##46
Ni
mực
##44
mk
##38
thờ
bom
##69
Thuận
Mặt
##NA
OK
toa
Song
lông
Tin
##ỳ
36
##49
##53
No
##34
zal
2017
##86
##én
##91
run
##64
##57
65
##85
long
bar
##les
##GB
##up
SS
##47
bắc
pháo
##43
2008
anti
##48
##ne
Lương
TR
##32
##ùn
##31
Chung
2009
say
##52
Ma
##book
ủ
Hệ
Cha
##ham
##59
##mi
De
Pro
##leti
q
mét
##id
PV
Sen
of
##ic
sáu
ngầm
My
Đường
##Ệ
Camp
##83
##OP
##04
##82
note
##ỵ
##41
dọc
##40
##top
@
##Ó
VF
##ằn
Thượng
SE
Indonesia
trục
Ka
lap
##ko
xâm
Tự
Áo
len
nga
Tấn
mo
Bin
Sinh
ám
##42
RAM
Italy
giảng
trại
##oc
andro
Iraq
Windows
han
TA
##Ế
SN
Lưu
5000
Phước
CS
mưu
##Ê
TT
mes
##mm
##ằ
online
##lb
Juventus
##uc
Cộng
Philippines
Cam
tam
vu
38
đạn
vương
##mia
##Ả
Lam
chim
im
Mùa
tím
##q
##90
ê
##J
Store
##ra
Reuters
400
vie
10000
Iran
TN
U19
##al
AF
tách
Lai
model
HTC
##Z
01
Mac
ad
##úi
##51
nhánh
real
Euro
Dân
mat
##@
##Ấ
Milan
64
sen
nang
##ck
diệt
##rà
mot
##km
Tòa
48
VA
chùa
II
##Ì
Cổ
##ya
tro
75
xạ
##ger
##fi
het
chủng
dk
com
Vietnam
Nghĩa
##nă
34
hàm
leo
##ma
hot
lang
As
##eu
33
lính
St
/
NG
nen
##hat
York
37
Sc
Sang
##wei
đảng
Hua
##api
02
##ttel
42
Internet
##ay
hoá
sh
Sam
dai
04
truyện
VI
##ìa
Fed
##jo
Khan
za
ồ
hung
He
Bale
05
39
08
Bao
Lộc
ham
##sa
meg
2007
eo
sz
##Â
##Ố
Pi
mm
##lo
2006
016
##chi
San
face
Za
ốc
me
FA
xỉ
Tam
2019
Già
Microsoft
Ar
Va
dong
London
##ao
##to
đai
w
Lee
##HP
iOS
##nde
##ro
Bp
GT
##ti
Tử
3000
##dane
##íu
##ri
tren
Inter
Obama
Syria
EU
rắn
##ing
##ry
##fa
Sư
loi
cảng
##01
##Ậ
Barcelona
Wi
Black
đuôi
##CP
##go
##li
##xy
Top
##uchi
Olympic
##net
Truy
mini
Paris
chúa
800
03
##da
VT
Liv
Wen
##có
bong
AN
Hong
Thiếu
Me
##100
120
chat
##ui
dì
52
ACB
Premier
MH
neu
soạn
##os
53
##one
Tiểu
Federer
##man
One
2004
dien
##se
Che
Trái
giáp
3D
43
m2
ớ
##ge
In
600
Tottenham
99
bai
Games
United
##pad
##eague
##ki
BT
ú
comment
##hai
##Ơ
ó
John
euro
Úc
like
Lễ
Thánh
Br
Ă
##IM
##be
Go
Điển
PC
Plus
vò
49
Fi
1471
Danh
gas
album
##ụy
virus
mí
lõi
Canada
wa
website
Sĩ
le
##rì
##tin
ASEAN
##at
2005
Ư
Cl
dé
##po
BC
46
Crimea
##yes
58
lê
Trịnh
Mau
link
##con
Â
Can
##game
56
##de
Be
iPad
am
##kk
ne
47
Ramos
##re
##TS
Lực
##TV
##rí
pi
vuông
TB
##ON
54
Roma
CA
2001
FIFA
oan
##um
Triệu
ka
wi
Hang
ế
85
090
##AN
##ce
Alex
##su
##ml
Op
##US
Phật
##ọa
Kong
Ke
##rez
Đạo
##line
triều
ky
##ly
vitamin
##êt
qué
##và
that
##va
CN
##ga
Thổ
Air
Size
ye
Kr
soi
##te
Sua
gay
Indo
##IA
Ben
XL
##IN
44
Sai
BA
57
2003
250
##qua
##ks
06
Airlines
098
dum
3G
lung
51
1500
##fe
##min
##xin
Washington
tot
Zen
Xã
##Ờ
golf
Địa
4000
07
SI
CO
##hay
##il
Se
sex
##ED
##ang
them
Chin
##tha
Rooney
##ovo
VC
HP
Fa
##au
https
rat
##pa
lui
41
Xiao
##tu
SL
2002
Sir
1371
Thạch
Len
093
tháp
##ank
CT
tao
Pen
Putin
men
Đất
tò
sé
##is
phone
té
##hah
Sea
ní
Sp
tua
Conte
##ID
Bo
MV
##HA
##Ộ
my
##ât
##nap
AS
2020
Le
BV
##cò
##Ầ
BK
Myanmar
lân
##peri
NA
tuo
##jn
tem
##kovic
gai
##el
Fl
ầ
dam
kt
##nho
hom
##ee
##2011
ST
Honda
tie
Ya
Í
khan
##Ớ
##Ề
Kiến
teen
##gia
email
##xe
ven
GS
taxi
Cai
Jo
ù
700
##02
West
59
Thần
Tỉnh
re
IS
hop
James
Pin
Phía
##hang
##ni
Camera
Grand
ss
##ku
Sol
Pan
##Ị
Nguyen
##lop
Xô
##ke
##lu
TS
Smart
##ắ
Everton
##CH
hét
62
##qu
Ủ
##cel
##pha
AC
##mà
Perez
micro
Tên
Cập
Sung
Lao
Old
Phone
Live
test
##ot
##chu
63
Tour
RM
Tot
##HI
Nhĩ
Pel
À
##tra
95
USB
##avi
Costa
##Ồ
Sha
io
##hm
##ker
check
##ip
##im
##jk
lì
Full
##no
##osi
ri
##ff
##ht
##dos
NS
Serie
Michael
Guard
##iola
110
##send
ton
hac
##hin
El
and
te
72
Ars
Sky
Manchester
ju
##Ợ
vun
##Ể
google
##Ú
Lá
6000
Sân
thanks
##KS
Tôn
##og
##cho
full
Paul
bal
Tai
CEO
##iền
##es
Bank
##rú
68
Kiev
##zz
côn
##ship
AP
##2010
##fford
##ol
##liga
nan
1990
dia
Vo
III
##per
##ky
##drag
CK
card
##Ắ
HS
##or
##fone
Ex
##HD
file
bun
Luka
UAE
Twitter
##Ủ
Munich
Lạc
##pe
Dortmund
uk
##eng
##\
##ừu
##nay
Oscar
##ric
nuo
sò
sac
##how
tống
##ura
Mara
69
180
##ja
nok
Mexico
##cha
##so
Son
Intel
##iu
##sk
##ad
##om
66
##me
bin
Video
Chile
Mat
Jose
Thank
win
##shi
##ine
ATM
Tim
##que
bit
Diego
News
Max
##zard
##òm
##ut
SG
Israel
Ky
hat
1200
##oo
67
BB
79
MI
ran
##lan
Beck
Lạp
fai
##Ọ
##thi
Ad
Món
team
##gs
##mo
hie
78
##xi
DA
LED
096
Je
##io
##rd
Mod
##dona
##erry
012
Salah
je
Chao
##bra
Min
loan
HQ
Sông
Sun
##nam
Red
##ih
##esta
flash
##xit
plus
Game
##DI
##ep
##yn
Re
##Ò
AI
tước
đới
sale
##TC
MA
Ah
pro
Big
##NT
cap
ắ
UEFA
Mark
##ap
##otti
Pa
Valencia
ac
##OR
internet
Dr
DO
California
##ford
##Ỉ
##ur
Model
##ovi
lien
Ram
MB
##ea
Maria
##bu
Ajax
##uki
##ex
NT
##Ã
Hiến
Nou
PR
Is
up
TC
##Í
Pl
PG
##ton
Seo
mun
##TE
##là
Chúa
83
Fe
Ku
Jordan
pe
TM
Leicester
Super
GDP
##ber
##ud
Ini
1998
##it
##may
BS
##ush
BL
Croatia
160
XI
Copa
Ja
##IC
Ham
##TP
Than
Tokyo
Toyota
logo
##oke
Star
Et
Tre
Moscow
##men
us
76
##ov
dãy
Del
360
Ji
##oy
##hán
nai
AM
Mr
Times
Sanchez
Asia
LCD
OL
Tom
130
Tông
Dell
Ed
##ey
Home
2500
##ox
350
tour
Ứ
vành
##CC
Boeing
gala
900
Mercedes
##pp
út
61
##É
##nes
125
Bou
##ig
ren
Môn
1999
Bit
SJ
Quận
1997
##oon
She
##mar
##ii
##uche
que
##đi
##rt
VP
Hollywood
Idol
quyển
Ship
##za
Italia
##TO
88
82
Nu
fi
##aw
##zi
lives
Ci
Luis
F1
Asian
U2
7000
##ps
BBC
##Ă
ID
##by
Shi
Trump
##ppe
##sp
Young
Shin
##ră
C2
Hot
U20
deal
77
you
Cristiano
ms
##ll
mic
##cs
LA
penalty
Mar
##ema
##ed
##den
128
84
GHz
##tron
SC
Bangkok
##cam
##Ụ
##ley
IV
Te
##uti
Benz
Ye
##UN
73
Ấ
zi
We
##fan
8000
Los
##400
Ali
Mala
rang
##xa
hen
##Ứ
ex
##pt
##di
Am
74
##rie
ja
MO
##st
##ru
King
Silva
VL
##app
TO
AT
BMW
Steve
1994
Chan
##NP
##ban
Fu
App
Ukraina
1992
##ah
it
Ve
##DC
SA
Villa
##hy
Berna
##ook
Yan
SU
1900
FC
Qatar
##ok
mail
750
China
opp
##EN
blue
##gio
##Ặ
Miss
kara
##yo
Tech
81
##omi
86
scandal
EV
OS
1996
Ố
##son
Don
##cu
1995
Ferguson
Martin
Ver
HIV
Monaco
qui
98
jo
##nha
if
##Pa
Ibrahim
##Ữ
sea
Zealand
Han
AFC
105
sua
89
##IE
##ak
Ford
71
CV
DC
##ux
Bill
chuồn
bl
##EC
##kak
##900
Bluetooth
220
595
cat
##ián
Só
Open
##mail
Slam
Sevilla
table
body
Win
Mata
Ab
Lục
##HT
Oz
Hyun
PL
981
Ferrari
NATO
##rin
play
On
##RO
CD
Var
dua
ngan
ar
Henry
##Ừ
Yu
##lea
Europa
##inho
Robert
zen
ISS
##ou
Thomas
EM
##lli
nic
##DA
Mobile
Cor
massa
SP
##lco
Mer
Tần
Dan
neo
##TD
Anti
Vai
1982
Pakistan
radar
##AT
Un
ji
sl
hạm
##ys
tv
##berg
##the
bus
Core
Đế
Jan
1991
##ath
gen
##dan
Wales
##Ù
IT
1993
##ien
##guer
094
Sport
##TA
led
Men
GA
robot
add
##box
1980
##vy
ậ
Simeon
##ter
Pers
##vne
Group
115
gang
CM
##bed
##ova
Jong
zin
miêu
##siz
VQ
out
Thai
##SD
girl
Dy
##ji
##nó
##pi
gie
Napoli
hoc
Daily
Newcastle
135
hp
##HL
Mông
KO
Canon
bat
2x
##tan
##rò
fa
Harry
Bird
Val
val
##ju
140
##field
Play
##Ự
##ara
##kin
Jennifer
96
Car
dặm
##kha
S1
edge
##mon
KC
Nan
##$
lag
92
Media
Pr
##éc
87
Anna
Ú
Oh
170
##as
##ram
ATP
Mas
protein
ỏ
650
YouTube
Hien
Instagram
tennis
##ene
Justin
Ao
Mora
că
world
self
George
##ei
And
##AV
##MC
TD
Bundesliga
Sub
##ls
ket
fans
Dem
##wo
##land
##out
##ze
Sar
450
Jack
Bridge
Scotland
Neu
Sim
$
##sen
Louis
##ock
##tam
Online
ten
KS
##ss
rêu
Fashion
break
dug
series
Né
##play
SO
Zu
youtube
##Ẩ
HK
550
##ac
777
##rini
indo
##AR
##tique
1800
Tan
Ras
All
##ner
Daniel
MS
##oth
##bit
Seoul
Victoria
contain
IM
##las
##gon
som
Angeles
##ax
Ireland
Bay
##rede
Taylor
##mua
Angela
MT
Peter
##du
Juan
Nick
stress
##gri
Murray
You
park
##erra
##sil
U21
##der
Kane
720
##wa
##bala
##gen
hien
Southampton
Youtube
visa
##SH
##ct
##my
Bon
Johnson
##lon
##uko
##iet
##nga
##MP
update
Kuala
##zu
##lick
##gua
Time
Garden
Dong
Mini
##BC
car
ụ
NE
Din
##TM
##TB
Carlos
##zmann
1988
Malay
##rong
xx
kn
##AL
Afghanistan
for
Amazon
Bal
Os
##ts
să
Rio
RE
Face
300000
Ronald
##ina
AD
##pro
Jones
Lei
##set
Chris
##phon
lua
Touch
##lk
copy
##off
##lin
##rung
ừ
##ido
##ler
1600
main
##eo
##gan
##ech
zoo
Lionel
101
##ico
Lumpur
Barack
##IS
##lla
##port
at
PA
or
1986
Porto
Yun
Uruguay
##leg
##ye
Colombia
210
##we
Vladimir
##res
##oun
wave
##lse
Sergio
1989
pk
SD
##cker
##ek
Bus
Fox
lac
www
##nd
##pard
DVD
dieu
##vo
##hed
CPU
Huyện
Ce
##vas
##gue
##nami
Williams
##ason
Com
A1
Hán
Kit
DS
Valentine
Love
Show
Cook
##tric
Wimbledon
ò
##ron
Wall
Bro
##berry
##OK
NO
US
1970
Alves
##tar
##hom
97
Sunderland
##oos
##rán
##ote
AR
um
##gh
##tru
Masters
gap
##har
Kevin
vien
##Ử
ruồi
SM
##nt
##OL
PM
##che
Motorola
Mk
##gu
93
Bush
##ans
##Ổ
##oe
Bang
Petro
##EL
##Ẹ
Jobs
##ec
Aston
TU
Palace
##IP
form
Az
##bin
Jin
##rick
##nali
Cel
##ny
America
PE
##mu
Serena
Inc
Vita
po
William
Kar
Set
Die
marketing
Gold
Ultra
Hamilton
##dy
Post
##MI
Ryan
##đa
Torres
Joe
##page
doc
Lang
Stamford
165
##ard
Nigeria
106
Roberto
##ngo
BP
##BS
Soo
Ying
##SS
Green
108
##LA
GP
IN
Blue
DI
##ist
##ick
##ion
##HS
Wei
1300
Like
Day
1100
ME
Won
103
Audi
Watch
102
Venezuela
Soc
Chat
##real
##bre
380
Giro
ay
Mal
##rou
##ngu
Phil
##OT
IC
630
bướm
##pop
Wo
MP
Woods
##ms
SV
##bab
9000
##ae
one
Marcelo
320
Richard
quai
##ruz
oa
BD
##mit
240
1987
##vani
##pan
##od
EP
mix
Sterling
##agen
lock
cotton
Pepe
##lv
BM
by
A7
##cao
pass
off
laser
##rá
Terry
Nm
Flores
730
ido
1400
Sur
Voice
made
Ak
##mp
Au
Rome
VG
FL
Roger
league
bass
##lí
##kov
3500
Power
91
RA
Donetsk
Good
Nas
Yo
Mail
En
Mega
NN
640
##stor
##vang
##cci
##CL
##tro
##aha
VS
CB
Hussein
##ois
155
tat
Chip
Mike
Yamaha
Dai
##Ở
##rap
Mario
##iare
##ir
##Ỏ
##SE
##dung
Wang
Crystal
##can
##ul
Alonso
##gt
##cc
Carr
PP
##sma
love
Leo
##MA
Tiger
Sports
##yu
##cup
hatt
512
Frank
1A
##din
mala
247
##hak
94
Lin
##ain
##gda
Kate
Or
#
##roi
##gas
1975
##rs
930
##cca
A8
we
cal
##oz
post
Alexander
International
Awards
ap
Best
##house
##2000
##IV
Cole
##ieu
##ping
##zo
##ati
1984
Palestine
lieu
hit
##IT
1985
Ken
Free
##RA
GM
##RE
##ET
##ddin
##tel
liver
House
Há
100m
##san
ml
##yan
rock
##nce
##phi
1960
##Ũ
Ty
##rang
derby
Mad
A3
solo
##nu
Adam
Nikon
##ER
##OC
mít
Jean
116
520
át
1520
##pool
Cuba
##ns
Ol
##tore
##EM
Czech
max
##ble
Cat
Sharp
Carlo
109
South
Antonio
##vu
##pu
bot
nadal
##hs
Loài
Hari
##oh
Tony
box
##pin
blog
##ghe
ae
##VI
##naldo
Yang
##CA
##mau
##af
##UI
Yemen
256
ua
##car
##tt
tab
Carl
Ron
##ez
##des
##ft
Baby
DH
Court
##ane
Auto
##vic
A5
Yahoo
sm
Beauty
Sent
330
##lus
logic
om
##hien
Club
live
##ten
##Ĩ
##oit
Land
Rai
UN
##hot
##ube
Martino
365
##won
##KI
1280
Gala
EC
Serbia
Spa
store
119
kit
##ola
good
AK
##xu
Cúc
Andy
Sing
370
SAM
230
Phổ
ser
280
THE
Robb
gram
Tun
##sin
##ster
dag
##ía
cn
windows
CNN
Libya
##ish
sum
MTV
Berlin
000
Tống
Arena
is
##nas
##rom
Philip
Dubai
##hea
Lopez
ot
Golf
104
Iceland
Blues
ADN
Ole
liga
iu
Disney
Kerry
XP
Moto
##ian
Enrique
##kini
Har
Lazio
It
XX
Roy
rep
Emirates
##bele
White
113
Đậu
##ST
Festival
Seri
1983
##and
Uzbekistan
##tri
CC
hero
Smith
##ers
480
Tae
Gareth
Jung
Bayer
Lew
Par
##LE
340
175
Rập
850
Per
Lac
die
##viet
Des
##oli
Las
vest
##chet
Access
##don
end
yo
Noel
Next
Garcia
##rol
Bloomberg
ET
##eal
Rodgers
420
Mirror
Fulham
##sky
Peru
Mary
pop
Rose
##GA
MMA
Kan
Rafael
225
met
211
##iem
Donald
Clinton
sil
France
Lady
quo
##ana
##able
rom
##TH
Ze
Jang
Pre
Lyon
##EA
Texas
sir
Ele
Thailand
asus
két
##ves
2022
##zen
Pedro
##ity
Acer
Kun
##nco
Brad
##ail
Sydney
Cool
##plus
1700
coll
Pat
##eon
carbon
Kom
gene
Scott
##ent
sí
pan
bon
status
950
##GI
ou
##AM
Brunei
##bar
start
##aa
##ich
Sami
Nexus
##hua
##tai
##van
##kem
##ran
Charles
Cap
Bat
DJ
##if
##Ẽ
Abe
##ew
Street
##AC
##hon
Es
Edge
mobile
Raul
Baghdad
##ver
##ject
Gates
Bet
Master
##lou
Woo
123
Roland
Gian
War
##break
ISO
Vid
##of
##tino
##BA
Lay
##uk
190
Fr
MW
##UP
Eric
order
##NC
Nem
##NE
Para
Ale
mag
##sd
##das
Mate
##chat
##ue
M2
Forbes
285
##chen
##asi
RI
Hungary
SK
air
then
##dh
Bas
st
1974
##vez
1950
Bai
##ski
Life
Steven
Global
MSN
Ferdinand
Hyundai
iPod
##hel
##awa
Far
##llo
112
ờ
Ball
##room
##zada
##lay
Rock
Championship
145
SB
ira
Vettel
PT
239
##ichi
VIP
NP
date
##pli
##ibe
##CT
Pla
##AS
##SA
Saint
TK
Sri
nem
##ggio
Christian
##ime
107
999
##hole
CE
##eta
Hart
sor
Lea
Tao
NL
260
##nac
Telegraph
##lam
china
184
##ando
##tero
##are
Music
##tà
##pic
FBI
dem
##wi
Im
Fuji
MIT
##way
4500
ẵ
Chen
1080
##ridge
games
mode
Gear
##CI
bird
##fo
Web
Ala
University
##rio
Deportivo
##clo
##AP
##ffet
Wayne
Sociedad
duc
Surface
Alan
Martial
Porsche
1981
Norwich
Florida
baby
##sal
Medvedev
Ny
217
Ana
Suzuki
Swansea
Ves
##má
Rolls
Angelina
dx
##art
##quet
Shaw
ì
117
Mel
Villar
199
Fans
##ix
tone
AL
Lex
1979
Dis
Andre
Dec
Kant
##lip
##card
Gary
Stoke
sat
Ser
Toni
##est
Lamborghini
Latin
Jolie
##well
Jon
Geneva
Cali
ray
##wan
Beni
Fell
Dream
city
Ros
Sy
Nad
Saddam
##wski
Hung
Andrea
Tur
Block
Martinez
time
Robin
##rlo
American
##ore
WP
hormone
sg
dell
##uan
##walk
Series
##ware
Ten
##ngan
op
##ome
lens
##SC
Kur
Olympia
deu
trailer
Mis
sedan
Snow
Cech
Fernando
##zza
Hull
##bia
##py
Kang
Rick
##lor
Duo
Manila
If
ya
990
1020
Hen
gel
sap
##fu
##orie
search
Album
Rod
##onal
##cal
home
##yang
Catalan
AH
Boo
fl
##ION
Ligue
ik
##gn
Prime
2n
129
##ray
114
nau
dich
Her
Schalke
Vert
##tte
fashion
AV
290
##lav
Chang
lot
SAO
Office
Luiz
pol
##CE
Cannes
202
Ay
What
##ole
##NS
##sto
##bal
Angel
##bà
concept
##sim
##uta
##hn
nhện
Neville
Champion
##meye
vía
Tel
nit
Jun
PGA
For
##chia
1978
Jessica
1976
hell
270
Simon
Pierre
Marc
##bon
##ím
GPS
Ash
Tata
Manuel
##watch
USS
Lucas
Patrick
siri
##bá
Bahrain
code
Af
Brown
Marco
##post
##city
hii
Victor
casino
##ean
fair
##UB
##jean
Desire
##lak
Eco
DP
##sak
Mag
Hello
##SU
short
185
Zhang
##Ẻ
Up
fut
Von
Zo
suo
##vro
##ug
core
##nal
Il
DE
OP
Alpha
Ranier
Ivan
168
Eden
##lime
Wat
GO
##ci
Yi
Jesus
1973
Micro
guitar
sieu
Pop
Pass
1954
ỉ
##PO
##long
##rry
Alba
##ami
Card
##iga
##sai
##star
Bob
Den
Bom
##shino
Marvel
Francisco
Ter
Kelly
##amp
##uza
Fire
Osa
Jackson
cabin
##ssa
Owen
##EF
##old
##ldo
##uat
Siri
##aka
##sy
Hee
##tal
Leverkusen
piano
##cap
Chicago
##ona
Pri
winner
ps
tap
1972
Er
Garros
152
DNA
Vidal
##bik
Selena
##ria
##nks
##mt
USA
##lt
liv
##urai
##ren
Vivo
##bola
##RC
bra
##ini
##mb
IQ
##ld
##ani
Moi
per
Que
Ashley
ĩ
Gil
##ano
as
##ros
##lú
##von
820
##hee
2200
##tay
##ES
##ev
RS
##our
Ea
##TI
pai
auto
##ab
net
##ero
##ala
ẻ
Bart
ns
Pitt
Sal
Ramsey
##dama
Ara
chocolate
430
Bil
Dani
tron
##Ỗ
##tes
Get
Business
kb
##vay
##PA
Metro
Alexis
EX
sky
Valverde
##IL
##bs
310
##umi
style
Kara
224
##mobil
pressi
Philips
nun
Boston
018
##vin
rin
Marca
Pay
shopping
Royal
Tang
bill
##nn
Brasil
Has
215
##II
Center
Saudi
Abu
College
red
Matt
##tez
au
##rgen
Santos
##alo
Bulgaria
Mur
Joshua
##less
Rodriguez
111
copa
from
Lau
CIA
##IB
pit
##NK
Bilbao
photo
Masa
WB
Ur
245
motor
boy
UA
##ucci
Anthony
##tion
Type
Rad
Vis
Cape
Cardiff
Sergei
##cy
##rat
Motor
Jason
275
Got
##tina
Puy
ON
##varo
Guardian
##ino
Mei
Samuel
118
##OM
##ds
Neue
Vigo
##chel
##CS
Pal
##AD
##roy
Wu
IF
##ney
ol
Yoo
Keane
Jen
Lina
Gun
##fin
##ito
159
##mn
##bach
Miami
Hat
Elizabeth
Plaza
new
best
##gra
##nti
diesel
##ovich
##xo
##kit
S2
Swift
##nie
ci
Benfica
Ob
buon
##ins
Will
High
ABC
##obil
asi
Sin
Davis
min
##let
##nk
Vic
Liu
##NY
Rat
black
AG
##CO
Viktor
Novak
##utu
Moon
##itra
##ken
##len
sand
##dri
##ier
Kids
##kos
Dia
1977
Trans
##cite
GL
Ahmad
Monte
radio
kaki
Melbourne
vote
##ris
Ray
##sha
Team
##gr
bog
121
LP
cent
driver
##eb
##mai
##vid
##face
case
LE
##ght
Uni
Gen
##ied
##gel
Ocean
Bot
##point
Chrome
Tien
Japan
##Ý
side
##tti
Run
##eik
195
MD
Charlie
Gas
Mazda
End
##Ẫ
Gomez
V8
Jay
Project
##lit
NASA
Nissan
Shu
##hari
2030
toile
deo
##yl
Choi
Santa
dance
##cos
##rog
##ezi
ku
AU
Andrew
##mel
sus
##pen
##essi
##dea
WHO
Gabriel
Michelle
Moskva
###
Bach
Pol
##oto
##day
Edition
Rob
dj
Case
School
156
##rã
Espanyol
##rk
##wein
Ecuador
Fast
Pot
##IG
525
##ite
##nan
##sch
##ió
dó
Mart
##gar
NC
##bat
Glass
##stel
Flash
Lie
460
126
Ren
Journal
Morgan
##zy
##FA
##mer
Entertainment
menu
1968
Harvard
Lim
Find
Yoon
UNESCO
Um
Vers
##hip
ab
##ada
##iz
Think
Let
##ira
##ack
Gemini
Pacific
##met
bag
Pia
Key
##uz
Demi
##emlin
Dio
B1
##ols
des
235
Stephen
##latan
##quo
##char
Bolt
ny
##jan
##vra
nickname
Lux
TCN
Laden
##ngs
Secret
Lewis
núm
Miranda
pa
pp
122
2300
##sson
##rgi
##rov
Avengers
Burn
##sea
##hic
##nin
390
That
540
##FC
204
##zou
##hos
5500
Muller
2400
299
Pepsi
530
##qa
Led
##bis
##gl
Parma
T2
Alt
Miley
nom
##back
Vegas
##uye
window
Ava
Ang
##zeko
Capital
##ib
NB
Hill
##Ễ
Mori
Dual
##pol
1966
##him
Nova
149
##dz
single
1971
##vere
sun
Willi
153
##qui
##light
##enz
265
Ave
Coca
##omo
##uth
##hit
##INE
DM
IBM
Small
Venus
##ipa
222
171
Sul
Dam
God
##mann
##ita
VR
Cameron
Nobel
##lbe
##act
##rena
##ling
##bay
Mot
Vincent
Io
SMS
Mid
##kong
##ali
##yf
Gang
bien
Sm
##mos
Classic
zo
##xan
Kei
McDonald
##gay
JP
Express
ag
dana
Jim
Cambridge
not
203
Eo
From
hoe
coa
##mah
Són
##sia
##dha
##RI
rap
AA
Pic
ẹ
Osaka
Shah
1920
Danny
##tas
##hau
KA
##ben
Sina
nag
Mari
##ima
490
Houston
tôt
Kenya
AB
Ling
##emon
Nepal
Mali
##ghi
room
Alle
##mir
##ngt
ợ
make
##hem
##rra
##thon
del
##gate
His
##sena
North
##steiger
bg
##sam
##gth
studio
##ning
##gla
1967
##meti
res
##ub
EL
Galatasaray
1958
gr
Mus
Riva
Novo
1962
1969
Paulo
MM
410
Joseph
Fiorentina
Inn
UC
##rse
##toi
205
##dong
##zak
Dar
Luke
Southern
CAN
##ssi
Pod
208
Standard
Emery
Hawaii
Iron
cd
##her
Edward
##bán
Sand
830
127
National
##rm
Elo
##stro
Wave
Oliver
ỷ
##chenko
Dat
sin
Stan
Ano
636
Aaron
McLaren
nek
##nl
##ium
Net
Howard
U18
##ace
##quez
##ost
A2
##ôt
##mes
##ow
Ẩ
Ari
##NI
Rossi
##rc
Network
resort
kW
Sarah
rua
Romania
##pas
##ville
Qui
Rev
##trie
169
##rn
##tic
Audio
132
##DO
KB
Wood
Arab
##hl
##gre
1965
Abdul
M4
124
##bn
fed
Seed
2100
Made
##girl
McGregor
##ood
##PS
Mil
##pur
Visa
Korea
Bad
Back
Cal
Walker
##ser
##nic
Pak
2800
##ern
##gna
##GL
super
UP
##zor
PD
major
Telecom
##ique
249
##pet
##sut
acid
##cla
440
##ash
Kazakhstan
##verte
##lă
un
141
##ell
BE
Neo
Schumacher
remote
374
Sara
Us
1964
Titan
Bruno
Eriksson
301
Ass
Golden
Lisbon
##gawa
1945
Wigan
Hall
00
Mont
Erik
view
LAN
##rae
##chera
##hz
##vil
Anderson
sport
Mode
Yong
cos
Non
133
##tz
##tta
server
##board
Aga
Inside
##nger
##nang
166
Football
158
Bos
Levante
big
nak
920
##ear
cover
testo
ultra
Morning
##dro
Xbox
Hanoi
##olo
Cruz
Line
Mohamed
Nathan
##win
##ppi
##bh
NK
##sit
##oda
2700
Gan
##bos
##ella
##cks
620
##efa
##tico
##aro
won
198
C3
By
moc
##lic
Bentley
##chan
##ela
##raz
Dor
Dark
##ksi
seo
Bee
SF
Resort
af
Jamie
SAR
AMD
##lca
Wan
##gy
##ME
##UT
##az
Gall
##sci
##gno
##hre
##orf
Airbus
2600
##ffe
SBS
##sport
Messenger
en
Noi
##loa
##bas
##ned
##hab
nap
##kan
AE
3200
##rer
##zil
ken
ún
Bull
##mh
Cop
Hey
mil
##Ỹ
##tor
212
LM
Asa
154
Les
Brian
Rec
Tower
MP3
##oid
##iya
560
##lia
Emma
##ag
Hum
R2
sing
580
TX
##ply
1963
##jib
Virginia
Leonardo
Maya
D1
Hugo
##kr
Rum
TVB
147
But
##side
##rum
304
Marseille
##fre
high
Res
##mil
ROM
eki
ọ
RF
Happy
1930
801
Tak
Abbott
Allianz
crop
share
Hun
Lawrence
É
##timus
##boy
Seu
139
Digital
##cott
144
A6
227
BR
##bio
Cameroon
Wilson
##bla
T1
##rri
Eu
Ivanov
##tle
##hill
with
##rb
Belarus
##EE
660
##zer
##IR
Bieber
Ata
Anne
compact
Roi
Uz
##uma
Ker
Premium
##IF
B2
photos
Vol
rien
Senegal
##NV
hyd
##dini
Phantom
##ob
Out
##dog
Marketing
##ef
tik
##ouse
ramo
682
138
##era
##chy
##here
Allen
##GC
##zh
Over
##cer
##sti
Box
ABS
sna
LC
Coll
##wood
Bol
##ark
Dol
Belle
Paraguay
136
Laurent
Philipp
Hit
162
189
NFC
##ik
Blu
##RT
##uu
##qi
##PC
Ei
Leeds
Adi
Jae
der
Roman
##sey
mg
##rmin
##ide
download
Chun
##aze
Chanel
Central
179
##DS
beta
Bel
Ama
Laser
##rious
##vs
Art
##LS
Ike
Nicolas
Doc
Link
Slim
##nei
Samurai
gold
chien
##log
Karl
sy
##ori
##fish
216
##isi
##key
happy
Tor
Rain
163
##iba
##zag
##vre
Cruise
##kes
RT
##kien
##ting
aj
Jonathan
192
##tch
##tna
Ê
##eni
Nat
Fabio
##haa
chun
Mall
##hian
Columbia
shops
##ice
##row
##ale
880
##mark
Night
Trail
shi
##pod
Por
##wang
925
Campbell
##cta
Beats
Johnny
325
Stone
810
NBA
##vaja
##abi
IA
1956
##ica
Tehran
Vicente
##gian
##ure
C4
IB
seri
##max
##nte
##rya
##link
##GS
block
##ies
##suna
##chta
HB
Chevrolet
Sala
MR
bd
##hita
##bón
##nia
Fair
207
##bel
870
Amsterdam
##news
##ktop
399
##ant
##els
Table
Marie
##ndo
##hur
##dd
fu
##hia
##cra
styl
sk
café
touch
Sporting
##uro
##noi
Hale
##Ằ
Nintendo
Health
Merkel
##uang
serie
##ensi
Michel
audio
mas
##tech
Arte
Bali
Timor
ll
all
355
DL
##VE
Warren
##gma
##ate
Chong
214
mesi
##EP
sub
ins
Gerard
DDR
##RS
Rover
iTunes
Jorge
Prix
call
##VA
Website
##elo
Lebanon
Miller
1959
##Ỡ
##sco
el
ón
##ardo
lit
##burg
Ghana
Dragon
470
Turin
Market
Eli
Rus
Vas
Ericsson
Birmingham
164
cut
##lui
KM
##led
boot
##ôg
##È
Brendan
back
Manu
Yon
argentina
miss
Bobby
##ame
Eun
Say
209
625
##lock
375
##pra
1961
Maritime
tele
map
##ever
##uri
Flor
Slovakia
##mat
##ven
Word
##IO
Rin
dream
kat
##vert
Hero
##SI
Rica
Om
219
canon
331
403
790
Javier
Aqua
AMC
##ove
##apo
Blade
##gion
pu
234
##ther
##cze
Oman
past
Calder
##tui
##loop
Ant
143
Racing
GSM
Volkswagen
Bell
Grammy
##sny
marathon
Captain
Low
Jakarta
Samson
TOP
book
##ison
##GM
Omar
Der
##ppo
##vich
##oop
157
##sso
Active
General
dor
First
167
Vale
Light
log
Basel
##tek
Hillary
##hes
est
Spider
EA
Luc
Med
Blackburn
Mancini
http
Mick
Jeff
kl
##cher
##ods
##mouth
##quin
Matthew
##rdy
570
##cola
##rg
div
Fernand
##zal
305
176
Mitsubishi
sala
Brooklyn
Herrera
##phie
##rl
##hio
Family
kali
Bourne
##tín
Book
Bruce
##elli
Lanka
GPU
Int
GC
##cco
ale
cc
Eva
PSV
Gaga
View
##eno
Diamond
##oma
##yet
Sound
##evo
##erg
Dow
Lig
data
Kuwait
McCain
##oba
##vac
##eh
Make
##evi
911
##film
Zum
##sang
Pac
boxing
##laze
206
Queen
Lisa
par
##eg
##kar
ge
ion
##ces
##sta
315
Dal
dot
Bolivia
Kerr
Vier
##non
##nis
Moore
hau
174
ă
##ora
LL
True
Mir
WTA
root
Jane
Elite
##nymous
Frankfurt
##lot
##MS
film
248
2D
##fen
Ani
Fred
131
Sus
##dge
##LL
HM
dio
##rop
##rle
Penal
##bang
##tien
Bug
Johan
tram
Mach
A4
##del
JB
780
FM
Girl
##view
CF
Ferrer
Harper
##lar
Ian
Phillip
Maps
Albert
Rap
Mina
##worth
##tone
##ama
##dai
Nest
Yoga
Cooper
Window
rapper
Billboard
##mic
thin
##nen
295
poster
Fat
Marathon
Adrian
Cass
Sue
et
##cin
##aco
People
##bie
Studio
##LD
GR
mach
##DB
##hog
Cher
178
DR
Rang
##đen
##nth
##yne
Valladolid
Sr
##nst
Av
Lotte
1940
##cent
Call
Hara
Bravo
Today
Mor
255
273
##sun
Mia
##adi
Claudio
Bio
Julian
Piero
East
Met
var
Gori
Phoenix
Goal
Dum
PTT
Fortune
Perth
##fel
Mit
Orlando
Vieira
##cle
Kai
casting
River
610
IL
##nc
Ross
Reg
##ata
Ever
Design
Boy
Come
Hawk
CG
213
Mix
Silver
CAS
PCI
MBA
Town
##amo
hun
Felix
ARM
##pus
Blake
Delhi
##bic
nat
##all
Panama
Berg
Pauli
670
252
##dic
vir
##rag
##wich
Had
club
line
pr
##ens
Photos
Karim
tag
##ast
cell
##jin
Bean
##oco
Nor
Universe
960
Ir
km2
Cara
##ston
Sunshine
##zone
Janet
##oni
142
Rep
mao
264
coupe
##pter
##SL
499
load
Mira
##ire
Catherine
Dutch
137
246
##gg
##ws
Nike
1320
223
Georgia
Benjamin
Renault
Amy
Mess
##cara
##ere
Arnold
Great
##ose
##KA
Heart
sound
hip
816
##nna
ES
flagship
148
SR
##xon
##rus
CBC
##mina
##ví
354
##ink
Mats
Celtic
\
zu
##lec
Wells
##lai
228
Bangladesh
##hd
##eis
Port
##iro
Island
##nda
510
module
Comment
##rive
prime
cui
##jt
Ned
Style
##lian
Udine
Evans
##yg
##dia
##gor
##bri
##agh
242
OM
Quick
161
2021
221
Col
##kor
Hus
1957
##odo
1955
Thor
UV
Tara
##sse
Gomes
134
##iti
##ches
784
Reus
Henderson
hel
kon
##iv
hand
##kis
##chon
##bby
226
##chin
##lly
##mun
333
Mao
Tem
##iq
##ope
Arthur
##kwondo
Diana
##fer
Carolina
##jen
##iver
Dolby
Color
Hand
Philippe
UFC
Ming
RB
huu
cara
##eri
Berlusconi
##hr
##blo
vat
146
Rom
Kat
Jimmy
conte
Shanghai
1953
##UC
229
##aren
##sper
##aki
##ista
Dustin
Robot
Latvia
Hollande
Sorry
##tot
Junior
Road
Gal
Test
Lives
##kori
Catalonia
doan
Virus
tea
os
Qi
Granada
down
Not
Ia
Oxford
Duc
but
MAN
Toronto
183
Hal
##egen
##hil
##ius
##ise
Futsal
Him
key
##dal
ED
Pt
##DP
##song
Space
232
263
##nzo
site
##vet
##zia
Maka
Focus
##yri
##ulo
Java
loc
av
##UE
Grab
##end
Pablo
##made
##anja
##mol
173
##ari
##achi
Lou
Duca
Adriano
Athens
##ved
218
##ndro
##ppen
##DE
##idi
DK
maxi
Hamburg
Turbo
##dam
Index
##vel
##stan
Ces
Gene
680
FS
182
Sudan
Brighton
Kenny
Civic
Dot
##she
Bremen
hem
##cus
Batman
Bond
Olivier
VM
##kkonen
##eun
##bé
##că
Sep
##tl
##ass
##ulin
##fas
Som
hybrid
ze
Sad
Francis
Km
##uli
##time
State
Tomas
##lash
campu
mod
Carol
master
Laura
##NB
Jet
Magic
dock
262
your
Speed
##rack
IR
Indian
Marcus
Una
##kim
425
186
##ors
##cket
Sunday
##Net
cop
238
Sem
Photo
Fabian
over
##lade
Nico
177
##cay
Joker
Trend
##tsu
Phelps
UK
nn
review
##rp
##dra
Fun
151
##je
##wat
Dominic
sie
pm
##ione
##atti
Palm
British
Education
##ize
MY
##NF
EF
Christina
wo
##hib
MX
##iko
##bol
Pinto
Massachusetts
ls
##yt
Four
##ines
Sec
Carter
Week
Knight
Linux
Opera
Nicole
Fury
1250
##GP
Toy
##PG
Blanc
opera
Petr
NBC
Christopher
##yr
Té
Bey
ante
1024
Zoom
Hills
Khmer
Paolo
font
Coco
##ili
stream
Sense
Tommy
Ice
Info
Watson
Wembley
ds
##sg
760
##bec
768
Lock
Rihanna
Rui
Jar
##cà
##org
Lane
Kris
Honor
##jao
##ashi
272
Down
##UR
##bot
Gol
amo
##mpi
Oregon
Ann
##vir
Explorer
Main
##eed
1946
Anton
##kas
##bek
##hão
187
##ono
##ule
Borussia
##cl
Western
Emily
Stefano
##bien
##lut
##oti
CX
Pure
Jej
Parker
Gay
Little
Lindsay
mart
##kon
193
ali
Cie
##orce
##aj
##mot
710
FF
tau
Jr
level
188
##chung
##đu
Lauren
kai
##lac
##xus
##eth
Middlesbrough
##age
##jder
##ras
inter
Jam
##azi
##tini
##tics
##lio
V6
VII
Francois
##lain
Boat
NSA
Bolton
##sel
Sapporo
1949
boss
201
intel
##iche
Guillaume
##cun
##ury
##orn
##aye
##git
è
233
##vina
ole
Hodgson
345
##rre
Hotel
Douglas
Thunder
Pet
535
Tennis
172
##uh
231
##dit
Hewitt
Tat
##UM
##uke
Ira
Formosa
##eln
Jets
##bt
243
Tong
Trust
xan
RC
##UD
##for
##rao
##olari
Aki
Solar
Start
##lanta
Sebastian
Brussels
Infinity
Motors
##ith
590
##vie
Control
Woodward
244
##lil
Stuttgart
Inf
356
##xia
Your
Antoine
AIDS
Assad
##mbia
##ons
Quo
##ase
nta
##shu
Beach
pre
Leon
##ach
##acker
##rel
Honduras
##lis
##llan
Kwa
##lins
què
Dallas
Mass
Boss
##nov
##die
Moss
Friday
Yen
##PR
Julia
Cyrus
Denis
Gonzalez
jail
DVB
##rid
Sud
##kamp
Bavaria
##AF
1050
##word
349
##orp
Cloud
Tunisia
##OW
##ult
Kid
##imes
Pos
Mikhail
Lincoln
id
##chie
##uf
599
moto
##rma
Catalunya
Vogue
too
Body
mara
##ahi
##vio
Tito
Bradley
Way
Limited
Venice
##tec
Are
Girls
Charlton
LGBT
Sean
##ming
rai
435
##rac
XII
Kennedy
Craig
##hir
##his
##sie
Taliban
Computer
GE
##tour
Vista
##dder
##bury
##lé
Milo
Dora
##iki
Ou
##pea
##hwa
Valle
##cor
feet
Romeo
Algeria
Huang
##tsen
Ms
are
Vila
Ek
##roat
Of
Thompson
##bil
Pack
match
Kahn
Canton
Lily
Dance
##wn
tj
Water
458
Range
pt
##iron
Alice
salon
##vis
##pat
Dennis
1952
Fish
Nice
311
279
DD
261
Boom
Data
skin
##bro
##get
Def
Didier
##mps
Arabia
##bb
PK
181
##wit
Final
Kristen
Armenia
Tyson
Derby
Clark
##het
Syn
Lima
Rosberg
##bii
mono
##has
sv
Ninja
amin
Rao
Age
##lass
##igo
##ele
Lev
##pac
gara
Firefox
##ientu
##att
##gha
##etto
Pennsylvania
Research
##yli
##site
718
##lov
Drive
MK
251
##izo
##fal
blu
ep
##lle
##nesia
ur
##sca
##nom
##egu
##anda
##uka
241
Did
Castro
Adams
Uganda
niem
Ohio
##rba
Gran
Lake
Franco
Channel
Now
##MM
##ING
##yi
Dead
##kushima
##hme
##ment
Bros
Amb
Paz
##Ẳ
##oya
##atar
Trap
Liberty
##enal
##EG
385
##ago
##ugh
seria
sem
ada
Vision
##WD
Cross
303
##sor
event
white
##ill
Cheng
Wolf
##ics
Sale
Warner
363
ặ
##bid
##rah
##WC
Colorado
##ogo
Warriors
Macau
840
Hon
##tis
Liam
Ghost
##edu
Bara
Tina
236
##ila
System
PlayStation
Shea
Care
Gordon
##doria
sì
##uet
Abraham
335
##had
Act
Challenge
269
Rachel
##cast
##ena
##band
Kind
Andres
Spurs
Ved
253
Walk
M3
cort
Holly
Shang
Fort
Luca
MAC
257
Atom
para
Ricardo
Rama
KK
TNT
M6
##ida
Santiago
Male
dy
Tv
306
DB
##WA
##posite
twee
Webb
361
Hunt
##opp
##bou
##kel
Blanco
Alexa
Madonna
Fowler
##hje
##yy
Het
oz
##ring
Mans
Dome
Solo
364
##Wh
Force
Management
##ive
Bis
##uff
##NO
##ici
##hra
##low
Kiss
##run
Congo
class
##rea
Rim
Finals
NY
##rome
Cairo
office
##oes
Barry
313
Katie
Kyle
##ires
margin
775
980
ninja
Sex
name
##obi
Beth
bos
Dur
hún
Dean
Eng
Ace
##lore
JC
Singh
##icky
##bes
word
##ota
Guinea
##tner
##lose
Russell
Pete
##UL
##lal
E1
395
dual
vert
Ellis
413
India
Jersey
Maguire
Pit
288
Seven
##ars
237
##cate
Brand
Janeiro
Muhammad
##gle
##dou
Irina
##via
##fr
Icon
Milne
##jet
ML
353
Radio
Potter
##pire
Press
Hard
Pico
##puter
Dieu
##pon
##like
ich
##mou
Raja
1948
Arm
Naomi
##uer
Igor
Gonzalo
Wolfsburg
seal
286
king
fe
##poli
Kay
##lona
##ball
Jordi
EPA
##gui
##ann
##oft
Heat
Eye
Pink
##sfield
dient
##rem
##GE
##life
Lukas
Torino
258
##eba
##tje
Coupe
Estonia
FDA
Brent
##mal
Arch
Kari
Charlotte
##trin
Vega
1947
Kings
196
det
##oss
##zin
1951
Seattle
Nur
1150
Perry
##gin
Stewart
Yokohama
Haiti
802
##nea
English
Cell
G1
Dana
Armstrong
268
##nch
555
##pec
Bryan
Bent
Award
Financial
Hana
kilo
Ahmed
##onic
shock
740
##dar
##gger
888
Technology
504
##erm
Taj
Halloween
Lightning
##nova
##LC
##zni
Michigan
##esh
##roa
##aya
Via
Amanda
Beat
Nelson
Stefan
alpha
##fon
war
##bona
Aquino
Graham
Raj
##vt
##iss
Wright
light
007
Was
ị
##ska
Mendes
Talent
Hernandez
Luxembourg
1942
##raca
##FF
rs
soa
Hans
Walter
##enko
##oen
##zzi
Stanley
##anti
##ilo
XIII
Ted
##taka
March
Britney
Simone
Alaska
##hum
Bella
Boys
Bernard
##yron
Jeremy
274
Istanbul
##put
##gam
690
active
2025
Helen
Grant
Grace
Too
Kis
##gent
Travel
Katy
Ada
259
##zs
media
Security
##entino
Wolves
jam
##care
##gram
fede
Gaming
Bir
##dien
##nuo
##dem
##sat
route
osi
ami
##more
##bet
Manhattan
##sley
Mars
Isaac
nar
text
Ruby
##pach
watch
281
KP
283
##tings
Karen
##zma
Neil
##ters
type
Ward
357
Abd
Marcos
Mohammed
Hitler
hak
267
Mona
Mae
concert
Larry
Clear
##tie
##OX
Future
##sr
Wars
Bala
##once
Colin
Tol
##iel
Lion
Einstein
##uve
##ogia
Holmes
Atlanta
##vat
322
##eck
276
format
Cesar
##SM
293
##gur
##bc
##lob
enzyme
##eva
Story
##wel
##tre
was
omega
##PM
##hara
Here
Cham
mid
Compact
Lille
Alberto
Harris
194
901
has
Rosa
Mol
Tango
Powell
MHz
##uen
##una
Ethiopia
##nock
Santi
Lens
Austin
Francesco
##ghed
Lua
ballad
ộ
##drat
##mael
Damascus
way
##tana
##hire
##war
##ony
##idas
ử
Shen
##chau
266
Take
pel
##vent
br
ce
308
001
##over
##pili
##iden
Jamaica
##mei
##vd
##lap
Sprint
##dio
Wong
##hv
##BB
bug
##bella
##feld
luka
##ily
197
##cia
##sur
skill
Fletcher
Bold
Brun
papa
Pasteur
##mis
475
##cano
##cera
##gd
302
##world
Kylie
Baltic
##avia
Josh
Guy
1120
##wl
##mas
367
366
##ull
##lum
##ple
manga
Holdings
Arizona
Miguel
##nect
##hman
Side
Lega
##zur
##eman
Petersburg
Alfred
1944
##mem
sur
##nik
Thierry
KG
##iso
282
Step
mafia
Palermo
Fall
##bong
Sama
én
Carey
Noah
ini
##kra
Ans
Eddie
Lyn
298
##ont
##yer
Stars
312
Dev
Gill
analog
##mba
##mbu
Abbas
Blair
##usi
##alt
##aman
Boris
come
##pri
##ado
Corp
Moody
##stein
##vien
How
##och
##fram
Everest
Chuck
Earth
271
##yk
358
Airways
Rogers
Massa
B3
##oji
VIII
Yuri
Mauricio
rights
##ade
Abi
MiG
Susan
##gó
##mang
item
Sirius
Buy
Dion
Marcel
gameplay
##zeg
sám
vivo
##dr
910
##amer
##lina
##tov
Donna
Joel
Software
COM
pl
tip
284
karate
Manga
Odessa
salah
##kita
nah
##hod
##por
##erson
##vka
Form
dog
##cet
##ttu
##enti
Kod
Sharon
Band
##duc
##ika
805
770
Meg
2050
Two
##osa
XIX
Nesta
##sm
grand
##air
##tto
page
Timothy
Law
##titi
will
##ầ
##ort
341
Tas
##oud
Pere
Prince
Update
ER
##kie
##mbo
##gus
Bologna
##leo
##lani
##ein
hele
Mathieu
reserved
cf
##core
##ree
##zar
Page
Vienna
Gunnar
Academy
Dave
##kley
Moses
799
##vali
##pine
Jazz
##agi
615
##bă
##pes
##aga
1x
Rey
##hor
Teen
Shakira
Leipzig
Corte
808
2A
##ett
##sul
##abad
##oten
Bosnia
401
##but
##esi
##wen
Lotus
##rot
STAR
Azerbaijan
Kanye
Vos
##tream
##YS
##mini
Gray
jazz
##eda
Linda
Gut
##ots
699
Bing
Hugh
Harley
jump
##yd
Kawasaki
307
Og
Taxi
##tos
##nate
Evan
Queensland
Chamberlain
Cinema
##hta
##gea
##ams
##shin
Carvalho
Rene
Foundation
Sandro
##ava
##mpa
Johansson
Ellen
668
Dom
champions
Eiffel
##tins
JA
Hamid
Robinson
Leclerc
Rojo
Hut
##nak
Felipe
head
860
##ust
##pot
green
GPL
Marshall
Jaguar
##ress
##iri
Feng
##uar
Slovenia
Scarlett
Aero
##val
289
##ggi
E3
##ile
##imet
Studios
Titanic
##fra
ESPN
Winter
Ryu
Ost
##tá
737
##nko
Universal
1938
Nation
power
1350
043
Australian
##nich
319
##oat
##code
##moto
##xt
Mt
Megan
675
##dat
632
Sie
##ega
Matteo
Mann
Silicon
##tang
PB
UFO
Beta
list
next
278
##heim
835
##hotep
Athletic
Shan
fr
Avatar
Drop
##eran
Daryl
Halle
##hou
##load
Hub
Joan
1937
Race
With
Wim
##uto
Logo
stereo
Job
Stanford
Wilder
##hun
##lf
##fit
1943
##gro
Rory
Schwarz
Stones
326
##zon
Tea
##ngi
Jerry
1941
Marina
Adele
##aard
Glenn
Deep
garage
##eke
855
Herb
Abdullah
Lance
Tal
328
##oki
##asa
##mine
Becker
Bud
uranium
845
Lord
Maroc
Foster
2a
##eco
D2
Lab
Aur
##ntado
Albania
##DM
##OD
Save
##roni
Rico
IRA
Aires
##vesi
##ckt
Special
Moreno
Union
Robbie
Jesse
##Ỷ
287
##fat
Kali
##bara
oder
Skin
Joy
lei
Collins
##eron
Spot
Sierra
##oha
##ryl
##ksa
Turner
CBS
Somalia
Mallorca
Barr
plu
##gne
Pearl
Maha
ICC
##nj
mam
fast
Search
351
Just
Kelantan
Sergey
Storm
825
##amat
##edo
Cadillac
Aid
336
##sis
Tag
Timo
Ashton
leggi
##ste
359
##rui
think
##eli
##lele
Schneider
MLS
##tax
Bright
##kat
Lorenzo
Mill
Tesla
Buenos
firm
Multi
UE
Nicholas
Gunn
Square
Self
Cafe
##SP
les
Julie
Godzilla
Coleman
Ranger
##borough
##sko
Kitty
##own
362
kr
##AA
number
##lee
##cua
Vancouver
England
##lat
Monster
Player
tae
Baker
##uture
Peugeot
Derek
323
Jenny
Iz
ks
ang
##lg
daun
##nson
Bailly
Thin
405
338
##ià
Bose
Whitney
Loi
Santo
point
254
Zhu
##roll
##tag
##Õ
##shan
Valley
##kke
Netflix
Philadelphia
##bee
294
##oom
lat
Baza
Last
##llen
##liv
316
Nes
Brothers
Phillips
Lucy
##bauer
##cant
##stone
Barbara
Frozen
Guinness
gra
##vai
Candy
##kai
##lex
314
Ltd
Greg
Henrik
384
Cry
Pai
##red
Sid
riu
##tol
1939
##rman
Olivia
##nett
Kimi
kung
352
Taiwan
##pal
##ness
Doo
##ymer
Riverside
Electronics
Margaret
Science
this
ã
Lucky
277
970
##late
##oka
Doctor
##rge
##hyl
Otto
Bert
Proc
Who
##etz
Goldman
More
##los
Kobe
329
##hal
Royce
##sing
##ess
pH
Nach
Class
Hof
##mund
191
Tiffany
Mouse
##ator
Manager
Diesel
Rijk
sharp
309
##oro
GMT
##china
Illinois
ACC
##mor
oka
##cil
Tell
Hughes
1936
Trip
##uda
##chard
Ricci
##fn
##zuki
##oot
Tee
##ary
Lil
Marine
Turn
321
bro
##dli
##nder
##lux
##tif
##isa
##kova
Stein
Jerusalem
##its
Rice
Adobe
##ijs
467
##endi
bor
432
Amber
Fin
Naga
Hindu
Faro
Nancy
tos
Cyber
##pper
##roc
mirror
##uid
##oso
Hudson
Joachim
Gibbs
Part
tom
Sunny
##nta
Roll
Angola
Sophie
Bye
##wu
515
##pia
Usa
##pid
Hank
Isa
##onne
Hulk
Turkmenistan
##quia
502
##tuan
ỡ
##eas
##ral
Wonder
##mond
##ington
Concept
##loga
Primera
CSKA
Bab
##igi
##ret
##ews
##ports
Siberia
Murphy
Arc
##oko
415
B5
##tli
Aviv
Screen
Sv
fon
##lau
334
Richter
Sheffield
Gaza
KV
taka
005
##rir
##rr
1850
##aba
##sman
##yev
Lok
Days
IX
##udet
Wednesday
Christine
Fel
##voi
##ike
339
##cro
This
##yor
Heine
Delta
Inst
Talk
console
Wild
Anand
Ottoman
aja
318
##cat
surface
##xide
Film
champion
Safari
Melissa
vol
##dau
##nma
##zel
342
##kun
Shield
Sarkozy
##cud
demo
Nina
Bloom
##phe
##tation
##ect
Map
Nun
Caroline
Sasha
mah
890
##lp
##par
##ift
Sofia
##glia
##dang
Sophia
##cce
##rber
Steel
Nations
##rch
nova
##tree
##ous
##CD
Akira
Mumbai
##uch
343
Ez
Electric
##zze
292
Ton
Zara
##ndr
Mariah
MF
##rli
##fice
Jacques
Alexandria
575
1110
Colo
Mana
Legend
Pas
##ffin
stick
##ág
jog
465
Cent
Ela
Citizens
European
Indiana
ATC
Alam
##lever
Woman
##kach
Diva
Soul
Blatt
##sol
##yla
Nara
Unicode
##ife
##hand
said
Zhao
##tein
##yde
ime
Movie
##rak
Pentium
crossover
Corporation
Slavia
##dian
Russ
Portsmouth
##bani
Straits
327
##loc
Off
445
Zhou
Cast
Keith
Chrysler
HR
##IH
Food
DF
Boca
Lead
##hei
BY
find
1440
Penn
Forest
##hart
Detroit
Reed
tih
422
485
##former
Hector
Sunrise
Hermes
Sparta
Girona
324
Hell
##namn
Excel
Report
Sign
dra
have
025
boom
##itz
Math
##ket
Hala
tur
##hro
Hunter
Alla
McCarthy
Sachs
Vatican
County
Code
##uba
panel
1220
Reno
Reyes
Maryland
Check
Rich
##cas
##bah
Sandra
Elvis
##jung
Fra
##tva
447
##rine
Cele
D8
Hathaway
Newton
Mead
electron
dui
##VO
sut
Rodrigo
Coro
505
shoot
nm
##ubi
Grey
Glen
##leve
Feyenoord
pis
kick
Hip
Cola
##yth
##rmon
Fund
##rigo
Dawn
Samba
##sc
##dà
##vă
##ivi
Ring
Century
##fero
Zimbabwe
##ulis
##ord
AAA
##bica
332
##vita
##illa
##fil
Consumer
Napoleon
Marin
Kaplan
Blind
bob
pat
##kut
Service
917
Tie
Moldova
Point
Montreal
Becken
Hop
##sus
Factor
Maxim
##yong
##hanol
Alma
Liberia
shot
Halo
##kao
##king
vinta
Apollo
Diaz
Women
Monroe
##nter
##oul
Yes
412
Hz
##stal
##buri
Larsson
Bernardo
##det
##èu
##dre
##hut
##tham
416
##bom
Zero
same
Petrov
nie
##ings
inches
##rai
asp
Wiki
Rudi
Brisbane
Kosovo
Foley
##ký
369
##hair
Sci
NM
##FS
second
##ight
Od
##kam
service
Pavel
Idea
##ivo
open
Monica
Desa
Ina
Independent
Floyd
bank
aml
##phen
Company
Toma
##bul
Kent
Mohammad
RAW
Andreas
Norman
Sonic
vit
wat
##far
Five
Walt
Bengal
ballet
Maggie
761
Lor
##oca
##gge
Bend
bak
Hie
##aza
Billy
##rab
Zoe
Kill
Bordeaux
Macedonia
Soft
501
Paradise
##igu
##til
##tig
##gil
Kap
Tanzania
317
##wind
Athena
##gal
Spy
Credit
Devi
Kurt
Bez
##uden
##essa
his
pub
476
##udo
##av
##acki
Expo
Elle
##vares
basa
Tuo
442
ỳ
trans
Carbon
##water
Claire
Datuk
Cut
OR
##sle
##col
Virgin
##dda
889
Sei
##pti
Head
Liz
Grande
Poor
Giovanni
knockout
Dua
1450
Mama
pé
ea
433
##tami
Zach
##meri
Raymond
Chad
Must
Motion
Fiesta
Most
##aby
297
##yst
##rst
386
##dis
Wireless
Assistant
Brooks
Jonas
##bó
##jd
##was
##DH
Jake
Juni
##ssu
Harvey
Money
Dakota
Rebecca
##mari
lt
##dor
Neptune
Hilton
Ono
Gravity
1202
Ima
oli
##inda
##sou
##lad
##AX
uz
##gat
##wear
Kao
##pion
##ener
##dale
Carles
Rex
Malta
Coffee
635
##nor
337
915
##chev
##ulli
Georgi
371
Panda
##vit
street
##ato
April
Cindy
2560
rating
Viva
Copenhagen
Ses
HBO
final
Date
##uni
LIVE
##park
rende
Guam
Huffington
hab
##tani
291
##zym
Romero
Discovery
Mayer
soo
fer
Under
##down
##nec
Stockholm
##esse
Place
##kt
bio
##ZA
Guo
1750
Ami
Monday
##nne
Valentino
##use
##lls
Bastia
Bhutan
##bok
##hri
pati
##tom
##nol
Gate
Davies
Jacob
##kla
Kick
bas
585
##uut
Calvin
##stin
##udd
##riy
Village
Lambert
##lton
Darren
Milk
rot
Fly
Ní
##rmo
Vida
Salvador
ster
Hui
##jay
##abo
002
##wy
rich
2nd
##rita
Roc
##igan
Luz
Cisco
Alexandre
##sic
Kung
sul
##illy
Oracle
Champ
##nici
##nai
Rosie
##lm
382
##ntu
##mom
##note
ệ
##ogen
Genoa
Vor
Ethan
##beau
##ifa
Switch
918
Simpson
##mad
##wall
Henri
##saw
Brooke
reti
##blad
##pre
##yama
API
Orion
Geo
##town
##eil
Hope
Palmer
CCD
379
##vol
##bull
##pers
##ese
##rato
José
Franklin
Rosso
##een
kan
walk
Cherry
##tù
Sandy
Stella
Tyler
Rahman
545
##anu
trend
##nza
Bristol
Anderlecht
612
ant
##nge
##cchi
Year
1932
##chent
Liban
372
##ias
##veen
347
Tian
##rich
##vsky
##ardi
##smo
940
404
pot
348
ret
Bare
##rush
##ature
368
##mma
##gina
Mani
##mio
Coast
Mundo
Rolling
Musa
Hoffman
Pizza
Alien
##tou
jong
506
Nie
296
goal
##nat
Utah
##sikt
Nielsen
Slave
Mason
Zaragoza
##yra
Dynamo
##tat
EN
Smile
See
##cope
##istics
Wikipedia
Ernesto
##valiers
##chua
##ette
Country
Records
Aron
##cut
899
Oklahoma
Hongkong
Marilyn
##eti
June
Gent
FX
Rise
Charter
slogan
Dei
Islam
Mustang
Hague
Spears
quota
Chiang
Coppa
##ott
Lag
Maxi
##rali
##rado
México
##sz
##bble
Cream
##lien
##dad
Gara
Kirk
Pictures
##gest
Sultan
Lithuania
##entes
AZ
##alu
##hium
Nag
Boer
Years
##toa
456
##lab
soan
Pie
Summer
##imi
452
build
##lah
Soon
Graphics
Giuseppe
Empire
Dick
##lme
Barth
penal
##pse
##tim
##ries
441
Advanced
##yak
Stephanie
Swan
Investment
Jiang
Heer
Khalid
uni
foods
Echo
503
##êr
##als
Jens
##rei
Nino
Watt
Metropolitan
MG
##sme
Omega
track
Aria
##vé
Casa
Hunger
SMA
##md
mari
Ola
##chis
Berry
Gao
Orange
Elena
Pavilion
Medi
##hana
lea
yu
1650
SW
Mono
##ange
Illa
Brescia
Hybrid
##mose
Mito
##ych
Number
Roberts
Easy
Sensa
Continental
Leone
##rna
##zai
Oil
Never
419
##zem
##yte
Emmanuel
Ariel
Barra
Dhabi
##tial
Hamas
##hing
##sua
##rti
stop
##ation
##bian
##kir
Battle
##dba
Saw
##cend
##riz
##ză
Vene
Stuart
iso
637
##uga
bol
003
649
##love
##rau
Bau
##nsk
Tribe
buy
Beau
Pereira
Russia
Ucraina
Todd
##dn
AJ
anime
##lane
Mueller
Robson
##erti
##llas
##anne
sel
char
rocket
Dylan
##uha
Stark
##ify
Ing
Ryder
##dae
Mem
##alan
##pico
Nottingham
##chny
##jong
946
str
##cak
life
Til
##ial
##rit
##vest
Single
##rar
Manor
Engine
EE
Heath
Beast
Berkshire
Basa
##tine
ONE
##ism
Cambodia
Bron
Deutsche
Claude
Birds
##lie
##lem
449
Annie
##jun
##und
group
Twin
##ffa
Stephan
##rno
469
##ake
FR
402
383
##bad
toe
Blog
Florence
Eugene
Jos
Danielle
Andorra
429
sed
##egi
##uus
Bass
##kia
suit
##abe
##ede
Mee
##ames
Ankara
##gap
444
her
##ddle
##mét
##etti
Jerome
Server
kin
##mak
533
##nche
418
##pou
##ueen
Gli
##tur
Vera
Honey
Missouri
##zid
coste
Sweet
##bl
603
Dale
##yon
she
##ump
PJ
Franz
##ander
1929
##oin
495
topic
559
fun
##lii
pitch
##eries
dij
get
Lili
Kad
##gai
##tus
##hid
ola
mass
##sio
423
##buk
1917
Madison
Puerto
##NR
389
Pioneer
##neri
Fiat
metro
##nau
376
ach
##rub
##cre
Marino
Tennessee
Minsk
Fernandez
Duke
Role
Montenegro
CAD
1a
Noble
Review
##hama
Yuan
Patrice
Oleg
##tya
##aster
Robertson
Morocco
Remote
Tau
very
col
787
346
##eny
ter
Bild
Institute
1931
##ohn
Sherwood
Energy
##ops
WM
3A
565
ut
##enn
##ula
AND
##bita
##any
##zan
Wanna
Shark
##bus
Guatemala
Human
Reid
##culus
Hassan
##thal
Richardson
Moe
Sint
Kot
##wr
##iru
##ppy
##ipo
##TF
406
##show
##serie
Franck
1934
Ruben
Chase
##dle
Trier
panas
1088
##GO
886
##rul
Shell
Direct
Alzheimer
##rian
##head
1001
##kip
Não
Hannah
408
377
##isia
ũ
beat
1935
##yle
##ead
##sig
SEC
##tica
playoff
Major
Joaquin
UD
Look
##rones
Sarawak
##ction
##ils
##mano
Dog
##aly
##yba
Natalie
Philippine
Ark
Minnesota
Shakespeare
Harrison
Dwight
##ocha
##reen
##hru
##eak
mir
394
511
##coli
Choice
Alessandro
XVI
Herald
Pascal
Cagliari
1918
host
##ilan
##haf
##nod
##gang
pad
##som
755
##ioa
##var
Mauro
##dote
Bow
Jared
##lasi
439
##wal
##mien
##smine
house
344
##lei
##ctor
B4
##bry
##pita
##iard
##itto
Okinawa
Gud
##isk
##round
##ful
##video
1550
##bak
Ivy
Dre
VV
##ndi
##master
##porte
Luna
Falcon
##lucose
##hawk
Verona
024
Horse
##fum
##cell
tol
532
##now
##mus
Clarke
Nevada
##imo
board
##ets
##vik
##cou
Papa
Pick
Dona
Strauss
Sato
##ory
vede
Det
##lom
##cti
##tok
##uil
Crown
Dante
##lev
1933
##ande
##sien
Aleksandr
##oj
##rans
##psi
1919
Aa
SPD
ATV
Kyoto
##nica
Alain
Edgar
##yar
Stalin
Tbilisi
461
378
##TER
Technologies
421
Need
##gani
banner
1366
Yer
##zov
Sten
##mont
##BL
Elsa
##ater
Ruiz
Bridges
Kentucky
1666
IOC
sq
care
Holding
Saturday
penn
##suke
Spirit
Cleveland
Belo
Thursday
Radar
##iah
6th
##aca
future
##odie
##oll
455
##IX
753
##eur
417
Metal
Rita
##agu
##meria
Lars
Holland
Cincinnati
violin
##duct
mit
vision
bike
bid
##sà
##cter
Dos
Wanda
Wesley
##choa
##uis
CJ
392
508
##ebe
811
##name
Wind
Kendall
Mateo
##đe
##eau
##ery
##br
music
Bear
Buffalo
##rella
Tripoli
Abbey
Sven
Bukit
Deal
##cq
Match
##tip
##hla
##dru
821
##oran
Crow
Patti
Stade
Lego
seed
E2
393
652
##tw
turbo
Cologne
##eid
Siemens
##PD
Lockheed
Guide
Martins
Rostov
##eto
##gos
Wie
##week
Raphael
Kenneth
Outlook
##zne
toy
got
mask
##ats
Kingdom
431
Solomon
Iris
Butterfly
Eve
Josep
Pier
##nad
##hiro
Carroll
Banks
sal
##kiem
601
##nca
Mint
Karate
##alia
Right
##tter
Diane
Gregory
Modern
Nature
529
##eel
##idan
Parks
##wyn
Three
Celtics
atomic
549
iron
##lma
Milano
Atlas
428
##gic
aq
388
Bora
##hul
##llet
dis
Anders
Sherman
Marsh
Nord
Petit
##Ỳ
##uca
Chr
426
##eus
Violet
Emmy
##chino
##ión
##ller
##chea
1925
Kansas
##jf
mis
##rf
vio
##WS
##kka
Axel
wol
Path
1910
Mountain
Platinum
Pastor
Emerson
##haru
##enes
##emi
Subaru
##style
##ffi
mori
Complex
##opa
Casino
762
Plan
Spartak
Genesis
comments
Memphis
Patricia
##fire
##OCK
373
##mbi
robusta
Nana
sui
##YP
##nos
##uya
Amazing
Barclay
Abdel
##lles
Duncan
Systems
Hampshire
version
411
Memory
##rua
558
##yah
526
Lamb
##uck
Ski
Canal
Chloe
##ete
1890
463
L1
Ella
##rent
FIA
Mount
Lennon
Portland
##ode
##rut
mx
Pale
1924
397
##tí
407
luat
Caro
ura
Vanessa
##dun
Piano
##jit
##titude
##wing
Volvo
Adel
##oum
Centre
dois
##ward
nje
Total
538
ref
Levi
##dim
##hani
Ralph
Levine
##muda
champ
##trition
Prague
Eindhoven
##mino
##eye
##pla
Dynamic
Kathy
542
##eder
##js
Shoes
##jam
##rco
setting
##nel
Vir
1928
Pope
Yao
Enzo
Iowa
mal
##logy
Maurizio
443
##eter
##hna
pay
998
##lato
Leroy
Virgil
samba
sile
##nit
cun
mão
##bun
##dow
##ppa
Hera
villa
Beverly
##etta
Leigh
dut
Ethernet
552
##fort
messe
584
##cking
874
Dag
##raft
Dil
Poll
Rada
Duff
Knox
Doha
via
##usa
ice
##lá
##eve
Buzz
Alabama
##buch
Pocket
Tuesday
##ntic
##ij
##UF
##tă
543
##ower
##bell
747
##rox
Sakura
mora
Reina
##gol
plasma
##ael
Filipe
##ydi
##rotta
Bautista
Mind
nou
##come
576
##FL
Perfect
##wert
##rta
Olympics
Mickey
##hav
Six
##ttin
zom
ríu
MotoGP
Hercules
462
Bd
After
Price
es
user
##cio
##haus
##fur
Ding
##pole
Monde
1914
Edison
Adelaide
Andrei
Lynch
Lehmann
507
##hima
1234
437
409
##eek
##ted
Curt
##ske
Arts
Pine
Concert
Roosevelt
##lya
Napoléon
##bban
K2
##rami
Himalaya
##gut
SOS
Blas
Spice
Yahya
Niger
FAO
##umo
Baba
387
##yda
1060
616
##say
Driver
##raf
Lara
Livorno
Clarence
Lloyd
Angry
Action
thick
##bor
##ual
727
##fir
Short
Zorro
655
##RD
##leb
Shot
Flynn
Pradesh
Edinburgh
##nsi
##bir
544
468
##dom
645
##hard
1921
Edwards
Arturo
Mariano
##xta
Gram
WBC
Leste
delay
##yre
##ool
##ios
427
##nke
vale
##atia
Caesar
Confederation
##illo
Remix
##chang
##cht
screen
D9
Superman
605
Viking
Churchill
##rkin
Rest
beauty
slide
Past
##wad
Jing
Wing
Pred
Aman
Ich
Cover
NZ
##apa
##ello
##right
Playboy
1912
Gibson
Tomo
OECD
Bari
##oney
Trinidad
Close
531
##oint
Blanche
Rangers
##rdi
Shane
##OH
909
Montana
##yme
725
##iman
396
556
765
##ddi
##hus
Beautiful
##bert
Christie
Services
Zurich
Aleppo
Middleton
Jacobs
Division
sot
##uit
602
##rve
##omb
##upe
Puma
446
WBA
Stat
##nya
Stock
##uine
Magazine
Dublin
##rad
1927
Seth
##times
Hear
ibn
cool
##sum
##bai
kong
Rei
Tree
restore
##idad
854
cache
##né
##ffle
##nick
Bennett
Rota
Lori
Sumatra
Pont
MBC
doa
##ving
##anc
##yoshi
lion
Sunda
Nicky
Sahara
Mirage
Gama
Dawson
Molina
496
##nus
534
hal
##rien
##cche
##oster
##ystal
Enterprise
Jeffrey
Danilo
Belgrade
##abu
Yale
Tone
Oct
571
##yna
##lde
Kingston
Victory
##eat
##istan
Quinn
##sar
Proto
Fritz
##bain
Palmas
##big
##lto
##cky
665
##lue
Forrest
##ding
##aming
Maj
Mother
XV
##rys
Kui
##andi
Zone
Farm
Wes
Brit
##issa
##ldi
Gianni
market
##ture
##dl
Pam
##acho
Konstantin
Asahi
Vinci
Auckland
arab
##chs
479
607
##uw
##sik
Pain
##thy
Goa
Death
Loew
Youth
CDC
Ontario
Association
1911
Rennes
Namibia
Edmund
##eer
##urt
Chocolate
double
##egg
##pil
Blau
Boa
##rro
1860
Burger
1922
Mission
Vela
Seine
##agne
1923
Budapest
Louisiana
Townsend
##fos
678
424
586
##door
tuli
Kidd
##lim
Cost
##urities
Broadway
Ridge
Sheikh
Alexandra
Broad
Cristian
Spielberg
##zado
##ids
##obe
Want
##kus
##cision
Dok
Loki
Kathryn
Amir
##uddin
Orleans
##ario
666
more
boa
MAX
438
##ute
Any
##oga
##udi
##gni
##ense
Café
Caracas
Panorama
Caribbean
Wisconsin
Guillermo
Freedom
Mater
##omotiv
Lecce
##hol
667
support
453
##lami
Fantasy
Paco
Dee
Extreme
##int
Rasmussen
##shire
Niko
Sigma
qual
tun
##tit
##mara
##llin
design
pak
##mendi
Alfa
Era
dello
Button
##vette
1916
##bird
Aguilera
477
digital
##kul
628
classic
##zie
Yeah
##ior
Kirby
##upi
Born
##rth
Hier
navy
##fs
spin
##miu
398
##rdo
##fall
##oce
##haw
ball
Bei
##tex
Iso
##lao
##pson
tenis
Aya
##phin
Kumar
Safe
Ferreira
##messi
runner
##zhi
Terra
ring
##moin
518
eye
517
Heinz
##burn
Troy
##rue
Jade
volley
Fidel
##vian
##ugu
RD
##kua
##iza
Vun
pas
HF
##tud
Only
Mitchell
Nolan
Jag
##ballo
Terminator
##ernal
lec
588
##sla
##dent
414
Polo
pet
ẳ
##lines
Glasgow
Gore
Freddie
##kare
Curry
##maya
##shima
zie
Came
Mercury
##aci
##dana
PAN
bara
trick
735
##ró
Transformers
##utt
##valo
##ntino
Stand
623
488
ever
436
434
lb
##vor
Signal
Break
Mainz
Eduardo
##grat
Togo
Schwartz
Reeves
Connor
629
##not
Jupiter
##inga
soft
Sana
Alicia
President
##hov
Haas
##polis
KBS
##omina
ii
##tian
613
##lod
Sens
##dil
Lost
##eller
Liang
##enberg
Saab
Futures
Giorgio
Kashmir
Bere
Spiegel
Rocky
##hina
##stic
##naca
474
528
##itt
Links
Samantha
Nicaragua
Boxing
Saga
Ramon
557
send
axe
##dao
dun
795
Gift
##lite
##rib
391
Well
##uge
Fisher
Pizarro
cassette
Urban
##aru
Ime
3i
capo
##ait
##dot
548
##porta
computer
Tala
##rama
##gie
When
##lyn
Paula
judo
##nka
Pierce
Vice
Zheng
##irin
##nini
Angelo
##rens
##iano
Second
##piro
##iy
##dig
Bed
Zola
Steam
Roads
Horn
Luigi
Keys
##meni
aut
##rni
band
og
bad
##tú
##iot
ự
1030
1010
File
Fine
##mura
Rubin
##dka
yard
##chool
Denver
Stevens
Germain
##rath
Mare
Friedrich
elas
##tn
Lot
473
##read
##cka
##tia
815
##rda
Sleep
Christmas
Haute
Blood
kV
Peng
##kal
##sfeld
##pura
##ais
shu
Sari
came
NEC
Stop
franc
Dinamo
Kabul
Alexei
talks
Atlantic
drama
Nikola
Gwen
Rhodes
Graf
option
##dol
472
1260
Gap
Hood
##ance
519
Hr
##yot
##une
##hera
##hane
##avo
##ncia
Juliet
Mozilla
Heidi
try
772
star
##ibo
483
##sir
##mpe
742
Weekly
##alle
Silk
Siam
ALT
pena
##ume
Logic
Babylon
German
Bela
1926
Hobbs
Gus
Dwa
##aan
much
749
bet
Why
Sit
Duty
Julio
##urn
1870
Fang
Madagascar
1915
Magnus
##haya
Katherine
##ania
##pm
tomb
##hood
WORLD
1865
leg
Bosch
aa
##gde
gare
account
658
523
job
##ldu
Marche
Louise
Aragon
Algérie
##lves
##craft
jan
volume
##tung
1040
##lts
712
Track
##ckou
Lilly
Pio
Jackie
Evening
Hopkins
Natalia
Simona
ICE
Siena
Tanaka
##uò
554
ear
1830
premiu
##veri
1902
##indo
##nee
costa
Cash
##bbit
978
##ind
##bba
##hali
Friends
##nata
##hiko
##atte
Amar
Clara
##gall
Wein
Wolverhampton
Rockets
XXX
875
veg
537
Stick
##para
##nz
Child
##edia
##kja
Heather
##ign
Juniors
##pore
Julien
Morris
Hasan
Beatles
Pob
PDF
Ralf
##lvestre
ft
ek
028
849
vis
##mala
##jna
Room
##epe
##ence
Saul
VW
##uja
##jou
Alvarez
Spencer
Flying
##jorn
Mey
six
##rga
Spring
459
bis
##rock
##gab
Cum
##hle
627
Mika
Holy
##gun
Stream
##eci
Evil
Marko
Escape
Witch
902
921
##món
##jar
##heng
Ó
##tum
##tak
##rod
##hale
##cono
Creative
Fraser
##liner
Kepler
##wick
##ussa
Ask
Rush
##irect
Aust
what
base
##aq
Morrison
NHK
Melo
Beer
##nach
alt
slow
User
##rif
Claudia
##kwa
Nigel
Gerardo
Darwin
mur
##nah
##wai
626
olive
mar
##iam
##jia
Klein
Princess
Mozambique
##rata
XIV
Barn
Reading
Balkan
##bound
Industries
Raw
Spur
Somali
Nantes
Always
gear
sec
##tsa
tige
513
Clin
Planet
Ora
Rosen
Durant
##kur
tango
er
##gir
381
##nok
Sino
624
1208
083
##ave
454
##amma
##ladi
##mest
##asu
Apache
Alliance
Atkinson
Teddy
Audrey
Work
Roth
##toni
##fina
489
Clean
457
##lady
486
party
##rka
553
##law
Party
Cox
##lake
Olga
Cohen
Toulouse
see
##adu
Nom
cave
##inte
cloud
mor
Wii
##ked
498
Fusion
Defense
Martina
##yal
##quipe
Cartoon
Ultimate
577
##cons
low
1880
685
539
Tip
Marian
Bog
##ert
Welcome
##mov
##ýn
Read
##lava
Turk
Gallia
February
##pina
Franc
zero
##uant
let
448
705
##ché
604
ôl
##sek
Bath
Petra
Vlad
Werder
##riat
Princeton
Sinai
Daimler
bench
Alfonso
did
tar
1111
Ik
##ntra
OF
##work
451
mia
Gare
481
##lý
##lur
##itan
1905
Ion
##quest
Partners
Yoko
##icia
##yat
Jaya
Ain
##reat
maya
##kl
789
color
##kata
##tun
##ille
##test
##pl
926
##tof
Lana
Buck
Mississippi
##villa
##med
Nile
Sanders
898
banking
##hik
##sl
##csi
##osto
004
##zoo
seg
Wide
Doug
Rivera
HMS
Aceh
Westminster
calor
Running
football
##idae
him
##tao
Dear
##uno
527
##gong
885
##mbe
##rix
1820
##aria
##ija
##cen
Mandy
Georges
##sberg
##ough
##rail
Kati
Ping
itu
blade
doch
##deo
006
##hmi
##lone
##tne
##hda
##ctic
##irs
##lef
Coma
##esa
Caribe
Put
Tamil
Walsh
Herbert
Wake
Calle
Chapter
##amt
##mă
##bye
any
Ante
3a
##iva
Ricky
Pig
news
##gli
Nei
##rate
Legends
Given
##olat
##nburg
Thomson
Elton
Casey
466
##yx
##bow
Trade
##tions
##ible
##tsi
Leslie
Jovi
##vard
Garner
Calcio
Gull
Jurassic
voice
##corn
control
never
Daisy
Battery
Trading
##roe
loss
Colle
Johnston
##arin
Xavier
1908
Stephens
Status
Community
Willis
1290
drive
Wendy
jord
##bur
##polo
##igh
Carla
Agent
Gott
Senna
##vila
Marion
Forever
Plate
port
talk
##ês
Zoo
497
Collection
save
##dá
Lucia
##ako
##lax
##rim
Mens
Angus
Canberra
XVIII
Quantum
Rosario
Yin
August
Trinity
Brugge
Tristan
here
fire
##pr
Dolly
567
478
##udio
##uv
##list
701
##rca
Hamm
##osu
##ision
diez
Riot
##acha
Social
Schmidt
Field
Zambia
Willy
##aves
Lakers
##odi
ug
##mpo
008
##iang
##jee
015
##main
521
##rona
engine
Elm
race
##ntia
Carnegie
Caballero
Bullock
##valli
Brook
##onte
Barnes
Tod
##wara
coin
##organ
##noy
##jon
x86
##ept
Trent
##dox
##dine
##jur
547
##ogh
Gross
1840
##uwa
Mack
Pace
Championships
Melanie
Freeman
##sure
youth
Sera
1330
##xen
Romano
Fax
Shadow
Davidson
##xes
Erin
Helena
Nakamura
Medical
Cour
##ké
##jang
563
##tiva
##ugi
Naples
Counter
UNICEF
Kohl
##anya
proton
##kle
Chaplin
##dson
Finn
Perugia
##jr
##rj
only
##jl
sensor
##dw
RP
##xar
##aud
##plo
##just
##jor
Baron
Maker
Protein
##quire
Silvio
##kek
Ernst
##noma
Federico
Wagner
Vito
Rocket
Rotten
492
Assassin
TITAN
##atin
tech
##colo
##rand
##fari
524
##tasi
##rger
makeup
##rip
Fate
767
Eagle
##unt
Before
Things
backup
##ccio
Chester
Reynolds
Messina
Davenport
Dino
Oy
Bomb
##oku
##lands
Extra
##dera
##ips
Once
Allan
##yce
Castle
Language
Aus
Rotterdam
Diario
##escu
##uco
955
NF
##lua
1B
##fy
ver
##mmy
ama
##hida
pose
##rain
Arkansas
McCartney
Development
WWE
##laus
Mohd
Johns
Blizzard
Judo
622
826
Dry
##cot
DNS
546
Spin
mate
Yuki
1909
Grad
##oel
Malik
##isto
Row
##rig
##arre
Aurora
Mandela
##anin
##lban
Santander
Foods
##vers
Nuo
##vant
##ovan
##pert
752
##ugo
Gong
cit
There
Logan
##rgie
Bowl
Elliot
Wolverine
sitcom
##vos
Chart
Edwin
##uel
##uss
##lich
under
first
728
##mous
Ortiz
1895
Alta
Labs
mayo
Rodrigues
Metz
##byl
Bourbon
Serge
Satellite
Clash
Basque
##isko
##sale
food
785
follow
##rino
##schi
769
jap
891
##rite
##tral
##pton
comme
Hospital
Conti
Slow
Into
Friesland
Works
Brandon
Image
Anwar
##bility
Benedict
Rupert
661
##vr
mica
##nari
##wer
687
##KO
##web
##ige
Ill
##lò
Nabi
##yas
##inger
Malcolm
Greenland
Salzburg
Osman
Emile
Players
Levy
841
##wir
##poon
013
##toma
579
##ddy
##pf
Raider
BMC
##ses
##eum
##plant
Praha
Suite
Shaun
Christ
Ismail
Gerd
Tasmania
Basil
Connecticut
Richards
María
Bertrand
Kew
Renato
pole
mer
##yuki
##ML
Lys
kang
609
Tank
bok
nhm
##rend
Gigi
##cken
##mati
##phones
##grass
##rave
Clan
Maxwell
1913
festival
##ré
Devon
##tional
Yorkshire
##leigh
Panel
night
856
RR
022
##radi
##wet
832
##stu
Mine
##cura
##ondo
Khalifa
Strange
Children
Alps
##tock
Challenger
##tors
Hannover
##ctors
Timberlake
Magna
ati
598
578
##raa
##pai
1070
keyboard
619
868
##body
##eim
##yendo
##uana
Globe
##zali
##jer
Moro
##egan
Soccer
Paper
lite
##anto
##kara
##lki
536
574
##taca
##nue
Pero
##dance
Rogue
Geographic
Queens
Miles
##cini
Warsaw
Kazan
Carmen
Coventry
Public
Rapid
Crazy
Elisabeth
##ulse
##weiler
Ruf
688
##dina
Toro
##uj
mei
Friend
center
719
Nine
Bonn
##awan
Cope
Nicola
Salt
Mills
Ayala
fee
tok
516
##nar
##nto
##klo
mol
OH
975
Double
##onta
Lynn
Our
1888
Ortega
Julius
Ruth
##mian
Torre
##krasi
Ventura
##gado
572
receiver
##pite
##cki
dr
nach
##oq
##tea
564
##force
##arma
1333
##lch
##rik
Wine
Sands
XVII
Boyd
Ley
##risti
hee
pick
551
929
##xic
##base
##sser
Vivian
##fig
art
##pier
##odon
Harmony
Neve
Drew
Stal
1901
##zut
Oslo
Joey
Performance
Pato
vet
cas
##see
gar
056
1710
583
##llon
##lc
487
482
##hig
Jul
##kod
##unes
##lene
Mauritius
Temple
Nixon
Triumph
Tobago
Justice
##glo
ể
##lang
945
561
707
745
Sans
##ibi
##group
514
Professional
Landmark
Dub
##zzo
Bola
##nite
Astra
Michele
##lve
HTML
Curtis
##ciela
UTC
ITF
##cach
fly
726
mati
Teresa
##wak
Shine
Triple
##stra
Columbus
Dodge
granite
##bridge
Marcello
Wade
Sava
Fernandes
Cleopatra
Burg
marc
##kull
osa
1473
Navy
zua
##onn
843
##plu
clear
ob
621
758
##leu
##bue
Niki
About
##vito
Bone
##ynd
Gardens
Transfer
Parc
Riley
Carnaval
French
Download
four
they
##oog
cream
606
##power
petit
nich
568
##brook
757
##mble
CSI
##otion
##gbo
stylu
SAS
Aby
Europe
##tali
Mozart
Clement
Butler
##mante
Rovers
Toto
Sega
##idd
##wis
##mona
##pie
##bles
Bahamas
Gerald
Cornell
Gabon
##chio
Direction
Ginger
##ufs
##ento
522
acoustic
##fie
##ican
startu
##kau
903
homes
##loss
Due
##gly
Half
Sima
##bria
Augsburg
Wire
Eyes
##tens
ming
##mone
Them
Mimi
493
##mere
865
##ross
##visor
Winston
Hamlet
Papua
Heroes
Damon
fille
Wallace
##ikos
##form
659
Pretty
009
pull
fat
##ges
##ESS
##ient
player
##ody
vida
##cnic
##grad
Nebraska
Station
Zombie
Travis
##akas
Cheryl
##tland
TNA
work
Uri
541
##cov
##club
##pass
BF
WR
##dres
remix
581
##eson
Wise
##ých
Luzon
Swiss
Exchange
Elia
##krit
##nikov
##uskas
Iberia
##rci
October
Clay
Maserati
##ném
Loch
CONCACAF
##teen
masa
653
1199
608
011
##kna
Shopping
##bano
938
1885
##uera
##alla
##rku
##ender
##isal
Buckingham
Lenin
Hiroshima
Alpi
Goran
##holt
Pokémon
Palo
Cinderella
##iul
634
##tee
1476
trip
casi
618
##dell
562
##cto
774
715
##kud
Oak
plat
##beat
Print
serial
Jess
Economist
Ellie
Building
Bailey
Pamela
##onan
##roen
Amor
Rubio
Wings
kant
cola
look
##tren
e5
569
##eme
Winner
##hya
cand
med
fim
ski
##pir
hard
Build
##yana
##nski
1836
Anastasia
Crawford
Reagan
Gavin
Olsen
Acoustic
MPEG
##tem
take
928
674
##uru
YOU
ề
##zaki
##bei
Brain
Summit
Frederick
Shift
##bollah
Bermuda
Sonata
Fonte
##vad
##cey
Fleetwood
diu
speed
##wed
##ipe
509
rum
1270
Electronic
935
motion
Sally
Alejandro
##ppel
##ault
##tere
Laut
Ode
Visual
##arde
Gogh
Dragons
##NL
plastic
ani
Como
##ril
Fresh
##iis
Tomorrow
672
##lti
Navarro
##erna
Montpellier
##linger
Holt
Gulf
##dez
##emen
Denise
Finance
##lift
Walking
Sinclair
od
##lieu
662
Ese
beats
648
1903
Then
1170
mark
##sion
Henrique
Natasha
Weber
##dice
##sian
Fields
Gloria
Maine
Borg
Machine
##hez
##mper
##uso
pes
Done
##ict
##amar
Dock
##gust
united
##xico
Gustavo
multi
Marta
Flight
Upon
##vig
Kata
Meyer
Sherlock
##relli
Lager
Cristina
##urg
Enter
##date
838
kor
1190
az
1680
##arti
##tman
##stock
##gom
##dah
617
vos
who
##zhou
##pect
Liquid
##cala
##reta
##moni
Avenue
Semi
##roja
##ulen
Alf
Leonid
year
##pare
Justine
noe
moon
Mais
mos
##ipper
##stop
709
##lita
##afa
Acid
##works
FN
Augusta
##riot
Penny
Ernest
Manny
Tournament
uri
WWF
##sling
Medicine
Pino
Nikolai
Quentin
rose
##hli
info
B8
##nts
1180
##kari
tool
##vins
##bí
Mrs
##beck
Das
Move
Keep
Dir
Suisse
Wilhelm
Kota
Trevor
Glory
Grimm
Burton
Aziz
##loh
Sullivan
##mare
1899
Capo
Circle
Monsters
Fram
Kemp
643
Sf
##kok
maps
587
##fast
evo
Peace
589
metal
panorama
dro
monitor
1140
Monitor
Hava
Valerie
##rasi
##edi
##ngar
Boot
Gone
gong
##tó
##êl
695
905
689
##él
keng
##rach
##dala
Odd
##alse
Pau
##ndre
Beijing
Dash
##rani
Reporter
Lydia
Soyuz
Monkey
Sharma
Fork
Reader
Quebec
Tomatoes
Emilia
November
Nacional
IAAF
sine
852
##lung
NR
##sid
##ging
Mayor
##lig
Flower
Lions
Launch
Picture
Salvatore
##pel
Moment
December
Target
Johannesburg
Northern
Miki
Forte
Society
Ober
saxophone
works
porto
776
##tty
##bile
##boa
midi
har
##rto
money
##bey
Hold
848
##ular
##oge
Private
Brother
dB
##zio
1906
Strategy
Abel
Dimitri
Hammer
Soldier
##hurst
Clare
Said
Porter
Payne
Chess
Und
Generation
Impossible
##lander
MVP
Greenwood
##dzi
671
912
eli
##cah
464
Cube
##rne
##nni
Michelin
Aden
##lent
##chuk
Disneyland
Gros
Jenkins
Borneo
##inka
Vargas
##rok
Paramount
##aks
Merrill
##ntou
Isabella
Usher
Courtney
Creed
raid
ann
##PER
##olin
asa
Jump
Mio
##tet
713
042
Rok
##cán
forum
Murad
614
Swing
714
Singer
Baku
List
Bishop
##inn
Tax
Corinthians
Yoshida
Carrie
pound
Normandy
Disk
##Works
Bern
Comics
BAFTA
Snake
Kristina
bons
729
982
##vede
##pis
702
031
1720
domi
##rde
Roche
##urs
##lance
##gier
Pratt
##ngton
##cian
Etienne
Shannon
Modena
debut
tog
##giu
ie
##aic
##gini
844
743
744
Learning
heart
Beyoncé
Sicily
##nberg
##lera
Oliveira
Miroslav
Daniele
Same
Adrien
##jero
##ond
##hini
##vá
Natural
##uts
##kki
639
Shake
Heaven
Apart
Thom
##uin
layer
##yano
##slav
##jad
##iyo
Locke
Bucharest
São
Patriot
Front
Drake
ITV
Berkeley
Superior
Train
brun
dok
SAP
##olio
LLC
484
##pta
##vice
##eru
meta
##eka
##sana
Route
Nees
##usta
##shing
##dega
Alfredo
Experience
Brady
Katrina
Annette
##rley
Primavera
##harge
Fiona
1620
##ioi
##ymo
949
dom
friend
##lano
Sui
1560
##ssin
true
##unda
Est
Este
##aban
camp
##ider
##nci
Nasser
Level
1904
Qaeda
Tomb
Sia
Seymour
Presley
Els
Veronica
##gola
Luciano
##anche
Dara
##horn
##wijk
Wladimir
Gilberto
597
dea
toj
##tib
##ckim
Sales
814
pari
##olu
471
JK
##ely
Tek
Foot
Alto
##enan
##tail
Artist
Massimo
##ians
##ates
Polar
RAI
Anglia
Program
Pax
Alone
Books
Lowry
##amos
##dici
family
1160
##nfo
803
##hine
##zam
683
XXI
631
##aku
Coach
Strike
Operation
##amine
Matti
Uttar
Greene
Gaston
##olt
Fry
Ende
Chinese
Nate
##ieri
##macher
##race
Woody
##ffel
desire
722
db
686
eu
663
##luca
##okie
647
##bud
##yman
##té
Giant
##vana
César
Frontier
Adriana
##isu
Sena
peso
della
##jak
Fran
1907
Berger
Prima
##spor
Zagreb
##aldo
Dina
Raven
Portugal
usa
831
magic
##pos
RJ
Toten
734
##liz
876
654
711
Yellow
Matrix
##gara
Epic
Jefferson
Downey
Ambrose
##ylus
ESP
Carson
violon
Westwood
Suba
Filip
Monza
##reg
##mung
lead
tube
677
##friend
##inos
##burger
055
594
##oper
Vietnamese
Where
##cke
Sting
##phile
Azur
Hardy
748
##fest
Gateway
##mbang
##bius
Fruit
##kse
Louvre
##tesse
##vine
1889
Ural
Mayo
sig
1380
##file
494
491
##nium
kar
##viv
1896
##nig
883
##case
##LM
##eton
##ssandra
##eji
##tainer
Hokkaido
Jelena
##rell
Qing
NGC
##ught
dollar
Christensen
##fried
Clapton
Essential
##ification
nad
inn
cable
Nil
1230
Sonny
##wah
##ped
708
Hair
##mani
Jill
Estate
1886
Oba
##aten
Chapman
Study
Freiburg
Hennes
Prat
Gilles
##sler
##pica
ia
now
##blu
827
1240
pal
Trek
##sell
##kém
819
Board
##creen
##istor
##oor
syn
Muir
Dad
Some
##allo
Deluxe
Leonard
Kaya
Carrera
Poul
Sector
Burke
Gand
##efer
##ggs
Correa
##gum
##ndros
Liechtenstein
sou
1340
Oko
822
592
##chid
##dams
Towers
857
disco
##arat
736
##hall
##rder
Attila
##mans
##lman
##atic
Oda
DOS
##dado
Wit
Filippo
Macintosh
Jak
##pit
passing
kids
##cial
aka
##wave
703
bala
moda
862
044
##try
828
##kawa
##ude
mich
Kato
##onia
Amin
Police
786
##nsky
Ronnie
Hotspur
Insight
Alec
##rance
##tano
Elbe
Darius
repeat
por
##rina
sis
Salon
573
##aut
##rke
954
Hann
##SF
723
##qual
Name
PSP
##jian
##mé
Angels
##ffer
##aver
Luce
Versailles
Living
Keller
Abrams
##elu
Destiny
Preston
##rano
##rsi
##ijo
Lec
669
##arch
##mach
fees
##bista
##born
##sé
##gten
##kers
##mie
##tban
1155
##dora
##away
638
##iger
Styles
Wellington
Tracy
##dock
Friedman
Alberta
Marty
Johann
Dominik
Everything
Klaus
##obert
Bernd
Sigurd
##rude
Select
Higher
Kaspar
809
937
##vende
##sumi
014
##balt
923
boxer
676
Juno
##pak
Qué
833
##stat
##ield
upgrade
##nati
Ent
Tall
1898
##isio
Exeter
##ety
Irving
##elle
Fantastic
657
##bov
##full
764
##maz
052
pala
704
##lank
Vicky
##rous
Shri
Palais
Havana
Lancaster
Royale
##fert
Amer
##nty
Kaliningrad
Indra
Rebel
##dano
724
##dua
allo
ei
##só
##elin
804
032
996
Jena
wei
brand
##inas
566
##mut
##mee
##WF
##rios
Nairobi
Judy
##feri
Cory
##vara
##aron
Intelligence
Baum
Norton
Irene
Sugar
January
Bryant
goals
want
##jama
##izza
eri
882
##lys
858
##menti
##nsa
ras
829
##wice
756
##VV
kHz
##izm
##tili
Odyssey
##sado
Rue
##shaw
Fighter
Watts
Herman
Rwanda
Task
ABBA
Civil
Wojciech
Voda
Chef
##eds
716
1490
L2
651
979
RPM
##aar
bana
young
##tory
754
##anz
part
##eep
Have
##sten
##ride
Economics
Daniela
Dama
Dominique
##lag
Homo
##ones
Yann
Burns
##wana
Davy
##esti
Chant
Alvin
Mile
rev
582
##ems
Alp
Karma
sol
##quen
##owi
##cko
664
##III
806
##izer
##dium
Yves
##unk
##kins
593
##isha
Rae
Toby
Greenwich
##rust
##xie
Other
##yria
##naut
client
##steen
rada
Legacy
APG
Werner
##jub
eder
##ahan
Cotton
864
##bina
836
els
organ
##bau
788
Every
vas
##eline
tank
995
clan
035
##nkin
jos
##pher
##rsa
Nippon
Almeida
Liza
Randy
Cyprus
##ssel
Jessie
Jasper
##tteri
##lito
Hayden
Order
##mát
DOI
##aji
Change
mata
1360
##dus
Betty
047
oval
##jem
Solutions
Fukuoka
Bleu
Reza
##iyah
Alison
Remo
Again
Kaiserslautern
##jik
pack
##mik
hoy
##olle
##vann
##bod
1760
mama
##rme
046
656
##hdi
jet
Custom
812
system
##iac
##nier
823
##nies
Catania
Plant
Maurice
##otic
Norfolk
Rainbow
##hoff
Williamson
Lagos
Karel
Twilight
Sutton
##chester
Rings
963
1090
##inha
##street
##ating
##mera
##inne
##sne
010
##mium
Shock
027
##ticos
##smi
706
##lba
##ying
Molly
##lide
Try
##aur
Yvonne
Grove
Astor
Saba
Samo
Frei
Bund
Hornet
Memorial
Allison
Still
##haal
Ivo
morning
Root
965
061
##uce
##guo
964
ir
019
##start
ev
Solid
##lean
##gers
##luk
##nton
ASP
##pana
Marx
Fleming
Takahashi
Kita
Fear
Images
IPA
Tier
Revolution
##nio
Argo
##ssar
Stern
Pérez
##riba
business
fri
##jai
696
##dú
##eem
plan
993
god
596
##stream
Rot
##tima
Takeshi
Cela
Essex
Lui
##izal
Nash
##sier
##krat
Runner
Dari
##cience
Horton
Deng
3DS
Eastern
gallo
Coldplay
Byzantine
robe
##samt
faj
had
693
##vao
##kom
1099
##plin
##yse
681
Wait
##rec
Dunn
##lgar
July
##geni
Devil
##eren
Neto
Donovan
FIDE
Parkinson
Joyce
##lavo
##nture
Murdoch
Monti
Jacqueline
##bea
know
##remo
##clic
LOVE
##tut
##gem
dens
919
045
846
##sei
Picasso
##kaz
Vince
##ching
Reds
Academic
Transit
Chambers
Negro
Howe
Waltz
Takashi
RN
##vitas
Mafia
INE
Flags
Rowling
Stacy
611
##mers
##kil
about
763
029
842
1130
##rade
##iant
##SR
Bulls
922
##lda
bowling
Diablo
Osvaldo
Pike
Mille
Cesare
##vera
##boro
Luther
Andersen
Hiroshi
Malawi
Arrow
##novi
1867
##simo
Congress
Debbie
Mord
Svetlana
Lucio
##otten
##zuka
how
hui
##bing
amino
033
##ogi
##oche
##lace
766
##lva
##lter
##iku
1460
##dela
##rill
017
flor
Wedding
Give
RCA
Jenna
1792
Property
Bonnie
Wolfgang
PKK
Message
Bald
Koch
Diploma
Nagoya
Garry
##horst
sols
right
895
##tell
##nut
##tră
Tale
dos
AOL
##ror
##cede
Holiday
##chus
cast
manager
Pride
Frost
##dler
Lund
Graz
Worth
Rockefeller
Grass
Engineering
Hilary
##rton
Jamal
Ville
Gilbert
1887
Selangor
##kina
##ild
Amelia
##rgu
Format
bout
773
##tab
Dove
##eki
Korean
##mid
5th
771
036
##jat
##pati
##bru
triple
##oza
##yed
##dov
##cis
##anga
##tama
Gallery
Fargo
Shawn
Rashid
##gad
##guin
Suzanne
Baja
Dmitri
##sher
Batu
##esu
Graves
##alus
##onis
Squad
RNA
Vincenzo
##gee
pos
1690
##ej
##kura
853
##rant
##EB
##rz
##upa
Ware
967
Sb
673
##oar
filter
##roch
Dit
Highway
Walton
Esteban
Middle
##glio
Beethoven
Gaulle
Clint
Nora
1897
Anita
Platform
Lindsey
Judith
Mister
##paper
wiki
##retta
##zari
##oden
been
snow
##nky
##asia
##atta
Qin
##mate
Tex
##cade
##uari
679
1810
##gist
Jaime
##lez
Valentina
Kern
Navarre
Kruger
Gandhi
Panther
Gallagher
Brett
Zeus
Gera
formal
Sedan
stand
Hg
Very
4th
##quis
644
##arm
##aton
071
##nse
Vest
##vec
Lena
tal
##raith
Crescent
##zela
Forum
1883
Beirut
##isti
##cycle
##utz
##ious
FOX
##ues
Jules
report
ff
##f3
Mask
##dati
Base
##erbe
FCC
##verse
698
##apon
network
Burr
Adventure
##ckle
JR
##rates
Oro
Punch
Licht
Command
##syon
Dracula
Faith
Highland
Weather
Lasse
##ejo
Variety
Arap
##roma
0000
##hado
##yum
##FK
##jir
##chó
##rey
1299
##cque
##bbi
Naruto
Mandarin
Andrews
Architects
Properties
Glee
##belle
Host
##rada
1789
streaming
Damian
Deborah
Anglo
Marks
##rati
Basse
Faber
Advance
Malo
software
Tonight
4x100
Faye
##bere
##edes
Borja
##mming
Conan
would
trug
ghost
##zda
##rose
782
##cana
##sem
839
021
##player
##nja
##mila
##igen
##berger
ATR
Kami
Warcraft
Resident
Alte
Round
Quest
Baltimore
Morales
Sims
##uille
podium
##unde
Kamal
##jah
##nir
Fayette
Elliott
Kira
##vato
Willem
##bourg
##ifer
Lopes
##erat
##ywa
vaan
##jie
wireless
##bido
GMA
##aja
##media
##ecu
1670
##dur
lab
##dek
##oria
tee
##gnan
always
##trò
FK
##ides
##uria
Uma
Emilio
André
Chico
Strasbourg
Anas
Orient
Gardner
Dixon
mens
Christophe
Sono
746
ari
817
##yti
VH1
##jum
##unga
honor
818
936
switch
Cathy
Help
Fou
Dahl
##owski
##rja
Cecil
##gard
##riere
Larson
Hooper
##reep
##wart
Theodore
Pittsburgh
##ques
Mons
Personal
Shiva
##plex
##iato
##kens
2550
12th
ry
023
Bien
##self
877
sales
##cid
Catch
Product
738
##kol
Coral
##enic
Figaro
##agon
##otta
Umm
##heimer
##wil
##iede
Theater
Soria
##gton
##guan
noise
##aven
##dì
inte
Tate
##zom
gol
##mali
feedback
988
Andes
732
d5
Muse
sida
total
##cente
961
952
038
##arri
##eit
##gga
##zea
Shirley
##ugar
##yin
867
Ruhr
Jura
971
Natale
##chap
##erk
Boyle
##dorf
##rico
##bari
Lear
Plymouth
Cars
##pala
Stay
##ghton
Jagd
flores
Levin
##tau
989
##tub
las
lk
##ees
641
##qe
Edo
##dhan
##lott
##gren
title
798
##action
Leopard
##ctra
Basic
##phine
Montes
##zing
##fis
##chal
##theon
##gye
Murcia
Ito
##ried
##deki
Johor
##mur
Vasco
Umar
Wand
Libertadores
NJ
when
692
rain
NET
##ital
1540
##tain
##lte
##ucha
##coma
924
972
##dran
##uris
##icy
1862
##lora
Matthias
Tourist
Florian
Bollywood
Griffin
deep
1876
##jana
Gregor
##quel
Career
##zhen
Sussex
Scorsese
##zini
##halt
role
stock
##goa
Ako
##oir
1630
##sche
woa
1530
tres
591
Kelvin
907
Wahl
##tical
Dov
##cross
##rland
hockey
##nist
Olsson
Agency
Sharif
##gari
##yuan
##nae
1894
##cine
Quattro
Arroyo
##dena
##stia
Africa
Mitt
Moor
Brave
Tore
##type
need
646
charge
##kei
878
##nú
Please
847
Genius
##mmer
Horizon
##sni
Account
Karolina
##ffen
García
Heritage
Duck
Brennan
Damien
Braga
Hepburn
Manche
Akbar
Ballad
##rko
Markus
Rand
1861
Wish
##nina
Heavy
##eniu
Rouge
gamma
René
Cannon
Madeira
Cody
Ott
1884
1590
Pegasus
ẽ
##family
966
##nil
##num
##taba
ker
642
##rts
our
Sundance
##unn
##nais
##hola
Fam
Natal
trading
##rier
alone
Venom
Rhode
Strip
##vili
##cchio
Dancing
profile
Rainer
##dei
Barton
Belfast
##cation
Bangalore
Virtual
Balance
##nev
Reims
##zmi
##ege
Martine
Pieter
Perak
RSS
navi
863
yta
##oner
731
drop
##boot
717
759
##nem
##cz
Kors
medium
054
1430
Suns
Rua
##idu
##BU
##rese
Helm
Process
Heard
##pace
Pool
Record
##tly
Sagan
Brie
##gris
Dame
Ladies
Sacramento
Sien
Canyon
Stranger
##ante
##amen
Rodríguez
Elke
##lik
691
896
Peak
##ikh
##meo
1730
##lion
751
##bino
##tele
Wet
##polita
Bellamy
##str
Elise
Tema
Journey
Suva
##fication
Curie
Guido
##iff
Carry
Marek
History
Savage
Percy
Midnight
Delgado
Olympique
##syn
##zama
gun
778
demi
contact
##koi
797
##ofa
other
697
##cosa
##rát
Merr
##none
958
##dara
Allah
Meta
Sabah
##enis
Gibraltar
##estan
Weiss
Adolf
##anie
Cornwall
Provence
Goku
just
goods
##dade
hub
##bung
##neo
1470
##artu
##ehn
##iles
##aty
##vite
026
906
1660
Aku
elect
theme
##space
##uing
Contra
baza
Valentin
Season
AIM
Sousa
1878
Hubble
1858
Nashville
Nasir
##esch
nor
Ottawa
Polytechnic
Joanna
##redible
##diso
Away
1790
997
convert
Its
Hanna
##gala
ud
##pul
##scu
focus
869
1640
Fiji
1210
##iana
Craven
Germany
Rubens
IUCN
Rana
##mana
Evolution
Pola
Dent
Cork
##ntures
Moll
##ined
Browser
##anka
##cato
qe
##iken
turn
##lun
##Ẵ
##dde
##wd
##eathe
Perm
##stri
Late
##FM
López
##owe
Guerrero
Simmons
Antony
Colour
Toledo
##evan
Reese
Gotham
Reports
##ezh
Zamora
Baldwin
##bane
eva
##fly
##yw
MJ
##ego
##redo
##kou
792
633
Cain
##kko
LR
Million
1848
Capitol
Petri
Cable
Mello
Area
##ahe
Newport
Yamaguchi
##gou
Pulau
Britannia
Dane
project
Campus
Jedi
Udo
Jude
Oliva
Wilde
ori
dub
##hof
##tkiem
Mimo
##gul
hol
##chn
##tivi
##kot
kun
going
##sas
shut
Titus
1420
1770
##qing
##cion
ỹ
##cino
small
Richie
RL
##oxy
1881
Trio
Crew
Gale
forward
Paige
##meta
Movies
BASIC
Chennai
##oux
Jour
1868
Isabel
##kre
##rint
Dann
Stadium
Pepper
##cul
Songs
etc
1125
cor
##ln
after
gela
##hne
1310
684
Miracle
1294
combat
Ducks
Linn
##enger
Uno
Event
793
##reme
frame
##oci
Avant
##rup
Sada
##tage
##nou
pau
##urus
Luck
##rish
##jima
Lago
Carnival
##lling
Maison
Cliff
##ders
Worldwide
1275
Genova
##rud
Surrey
Kerala
##olis
Truman
##nell
Hole
##lta
Twee
Theatre
Policy
read
Bucks
Sancho
WEB
sure
pie
crown
Guitar
20th
951
932
well
##kaa
Forza
ble
733
##tium
Sexy
years
Butte
Hyde
Laguna
Freud
Sammy
##ricio
Salman
Martha
Sloan
Manitoba
##juan
Davide
##sburg
Avalon
##mero
##ayo
Auxerre
Admiralty
Cage
##kama
Nero
Augustus
summer
cum
BEST
ons
##bone
coffee
##ref
##diem
739
968
karo
##erang
lane
957
##cei
pero
##lib
##poly
959
1845
##pte
great
##cea
Text
1893
##ryn
##tka
##sori
##cari
Schiller
1780
Romain
Fischer
##idia
Strong
Valeria
Atlético
Krishna
Dario
##aper
casu
Wakefield
##rova
Jensen
Constantino
olim
##vot
##êd
toto
##quer
ima
gran
put
##ged
974
Bento
927
##antas
Goodbye
##raphic
Rowan
Sora
Russo
##inder
Dogs
##rone
Inca
Kitchen
Sein
##weise
##nard
Nya
Madame
Animation
Combat
Aviation
their
Karin
##zawa
1873
##adar
##icus
Gino
##chov
##nska
Idris
bomb
tree
##fiti
pg
##rtar
##wm
ore
##ndan
##occo
pink
##guard
694
##brand
ombre
7th
fine
ups
##ows
##uman
cel
1390
##kro
##lz
##anan
##bour
Palacio
Mustafa
Harold
Seasons
##court
Architecture
Lexington
Arti
Brandt
Idaho
Hansen
##ceae
piste
Television
cross
##tros
Medina
872
dre
mio
farm
##ée
871
##tno
##iad
##dhi
##fia
push
##mita
##beri
##aid
##anta
741
##msa
##ghet
Daniels
people
##rion
##hala
Velvet
public
##rew
Gina
Wald
##tla
Mindanao
##nado
##motive
##croft
##roca
multimedia
Comic
Rams
##graph
Freddy
Marlon
##elet
Osborne
##grave
##lett
slot
wel
ih
985
Tail
Canary
kis
##ishi
##RF
##pun
##eir
water
##izar
721
##lga
idea
##dore
Medium
##eet
##nek
##rren
credit
Poker
1242
Rocks
Ubuntu
Peterson
meeting
##isse
Economic
1872
##llia
1292
Nagasaki
Survey
Danube
Watanabe
Fitzgerald
Barros
Gallo
Mehr
Infinite
##viar
Guild
Delaware
Closer
Sonia
Yamamoto
Tudor
Portrait
Haji
Vaughan
diet
837
892
pla
blues
FOR
punk
fit
pra
1219
BRT
Door
##rmi
Domino
1875
Ist
##wig
Ludwig
Omaha
##ulle
Lines
Windsor
Horne
##borg
Gaspar
##urd
1853
##anna
##tura
##ilen
##ousse
##mage
Republic
##gner
Webber
824
##ingu
807
987
##rius
sheep
##ná
933
##heart
cricket
##neg
##fier
Nothing
Vall
##tase
Know
Bender
Industrial
McKenzie
PSA
Kimberly
Liber
##rota
##ellan
Jie
Jana
Eduard
##scal
Putra
Rolf
##aurus
Sant
##onin
Kristin
Brittany
##eks
Radcliffe
Father
Astana
Wolff
Count
Mercy
Lester
alba
##erten
##HF
Cet
##ffy
##garde
##dak
##part
095
##cing
1825
##rist
##hasa
1799
were
Nada
Leta
Imperial
##mori
Rhine
##rillo
Conference
##tive
##mora
Souza
##fied
Earl
Ride
Pulitzer
##neb
Pisa
Pour
Kolkata
again
Dollar
##gnon
Apocalypse
Pilar
són
##cules
Attack
gal
saj
4a
##preme
##tse
##kop
##mó
typ
##inde
dead
##tav
POP
##owa
Support
sona
##olla
037
049
Hate
##plane
##sens
Oriental
##inent
Josef
Vive
1841
##zim
Qur
##holl
Hanover
1864
Islands
Herr
##ruf
1892
##tio
Ridley
Lone
##eig
##eca
##vab
tek
##mui
##RN
1480
enter
õ
two
bras
##night
ending
roll
Jungle
Unit
swing
1295
##lver
##uds
##rvi
##ched
graf
##acon
##ruk
##dida
MGM
##eles
Milli
##tad
Gothic
noti
##hter
Helsinki
##lard
Associates
Garrett
Wilfried
Third
Rein
Bradford
Ritchie
Frankie
Luxemburg
Frances
##fic
##zn
##pone
feed
dima
clay
##óg
aw
country
sleep
fruit
KGB
##got
##lico
poli
bold
##iner
943
##ehr
Braun
last
ACT
##bum
Nikki
##bran
Colt
Samme
##ency
Honolulu
##tja
Conrad
Champs
Mahal
Volga
Creek
RPG
Glas
Warwick
Britain
Atlantis
Chandra
Irish
Flat
Cedric
Origin
##erd
##lers
##avour
Phase
Hubert
Baptista
Enn
Bells
Bf
##orio
##coa
##tím
zum
1699
Ove
##ndas
##kee
##zaba
834
novo
1399
##ggy
polo
1610
prop
914
976
##muan
woman
##hys
##wes
##vista
##ntz
elite
##nando
##sara
##graphic
Elder
Jardin
Cold
Somerset
Beyond
Sciences
Barre
Irwin
##zine
Faso
Geoffrey
Jeanne
Antoni
Church
Francesca
##gano
Emil
Eugen
Museum
Seul
##hance
Lorient
##jed
Grosso
Army
##did
mouse
##endo
old
##isan
kings
wall
##centra
sila
lava
##joy
Amos
Chor
Lemon
897
##cie
##ôme
##diu
##cesso
Communications
Falk
Springs
ICAO
Maple
Kale
##rva
Diplomat
##reiber
Oni
##chor
Geoff
Dynamics
Griffith
Qara
Sulawesi
Shore
Pearson
##gabe
Johannes
Schultz
Bila
Much
Montreux
Castillo
##laas
##tae
Iglesias
##ttle
##dag
sog
##ISE
781
ee
lave
##eyn
973
1802
c4
##mda
Daddy
1580
lie
##ène
##sot
##juk
##ulla
##tev
Benny
Dreams
##kill
##kala
884
Eddy
##rava
Lover
796
Ching
layout
Stevie
Margot
Genève
Surabaya
Ancona
Syed
Faz
Schuster
Albacete
Tarzan
Sylvester
1871
Punjab
cruise
Patterson
##nato
1812
##rpa
files
Blaise
##oron
Citizen
Milwaukee
##gaard
URL
Krasnodar
nucleo
Grands
Jardim
##aik
##lci
1815
##zd
969
813
clean
1866
Seal
fac
##maa
##cum
##order
##saka
##bers
oral
##vey
1435
CAF
Lama
Kore
away
##bera
Safety
Patel
Cuban
Sentinel
Bohemia
Sve
##vern
##llah
##strom
1863
##foot
Colleges
Vampire
Airport
1874
##rnis
Viola
##dje
##tara
Gods
##erie
##gging
1599
##cula
ala
ano
##tup
Isto
1804
##beli
Rond
##tria
oba
Nikita
1740
1499
Corner
1819
Terre
##wag
Huntington
##fair
Fay
Vermont
Networks
Ona
##otov
##wald
Eis
##asco
Burkina
Bates
Henning
Chiba
Cobra
Albion
##verde
Mendoza
Zack
Aberdeen
##raya
Britt
Herzegovina
Castilla
##wand
##hino
Harz
1002
##lub
Lange
##omy
##obu
books
step
##anke
kop
##reo
##lave
dort
##urat
##eria
Foreign
Leaf
##erald
Corona
Angle
##mand
Sicilia
##sain
Agnieszka
##onda
##liu
Frey
##iol
##nine
##rott
##jos
Michal
##alter
Malaysian
CFA
Effect
Salas
Eastwood
Bernie
Garfield
##iran
Scarlet
Lennox
Johanna
Tokugawa
sono
fx
done
931
force
783
887
1e
EMI
##tua
##cles
##lova
RW
##reu
Eternal
program
##rice
##rns
##resi
Demo
##rce
##xton
Fight
Symphony
1805
PMC
Malaya
Lowe
Nos
##idor
Suez
##smith
Fuller
##dies
Pearce
Isle
Eat
1835
Dirk
Shelby
##maga
Egypt
Esther
Villeneuve
România
##even
dl
perfect
##enda
pool
yao
use
916
##ssy
893
Flora
##ical
##wie
##vala
##itch
##rug
1832
##rest
##tog
resta
##ttage
##enne
1849
feature
##czyk
Evelyn
latin
1839
Monique
Typhoon
Hook
graph
Stil
Eminem
Tamara
##agle
Belize
##rmat
Durham
##nez
Bord
##avy
Montero
Rowland
Insurance
Steen
Champagne
##gis
Kaiser
##where
##rique
Barnett
Regis
Fallen
Drama
##liano
domain
Sylvain
Puerta
Bolzano
sto
Dne
##hant
wine
1788
939
##ndu
##nye
lys
##mite
##otto
##ncy
Kamen
beautiful
Desert
1305
##icap
1025
##roth
story
1775
pod
##acher
##tke
##nomi
##vale
##lights
Botswana
Prost
Karol
1838
Thames
Paso
Nichols
Webster
Lamar
Wizard
Silent
Tahiti
Contest
LDL
Mariana
##lke
Lola
##mys
maj
jin
display
1288
##cale
semi
##qué
1570
904
##nsen
sta
##fang
##alin
dele
##eso
##pere
Wheel
##dí
Ragnar
Joanne
##bli
##bana
Monk
1198
##wise
Calendar
Leader
##bler
##inan
Illustrated
Factory
Finger
Large
##raq
Artur
1831
Random
##voir
Carolyn
##rete
Kuba
Saturn
##reck
Kirsten
Viktoria
offs
many
kind
ros
oko
Hoy
##ptor
##sna
##ngin
liet
##tret
1503
land
##dna
cash
##kap
859
851
far
Ready
##azo
##oman
Forward
1851
Pandora
##lios
Twist
Gujarat
Rode
Stirling
##hers
##eath
Flow
Gerry
Hour
Bianca
Lorraine
Centro
Haus
##vare
##izio
##ivation
Ramsay
##cris
Becky
Stalingrad
Piacenza
llac
Stora
hain
relay
068
ul
##tul
2540
##seller
##bern
##enta
Thing
##dum
##uban
##erman
##leno
##enu
794
##forma
873
##trum
Banda
rak
##umu
##osta
Hotels
##voy
##elia
Scotia
##ution
1847
##riga
1891
##riss
ESO
foot
##lium
RAF
##ulation
Flamengo
1882
Manning
Camille
Clarkson
Together
Marriage
which
Haven
Satan
maith
kas
074
Innovation
modul
##tant
##take
flat
Chain
##aris
Dust
Ibiza
Mikael
Boga
##some
Sparks
Kensington
Zapata
Poe
1285
Doom
##brio
##lein
Limousin
Mahmud
Venezia
Myers
Samara
Achille
Local
1854
Salmon
Devils
Bundes
Circuit
Byron
Dickson
##ekom
Seat
Information
Rally
##raj
Rocha
platform
Barrett
Pasha
Trends
Authority
Billie
##isy
Brock
simili
##ivity
late
1478
help
warm
##ups
arc
custom
##avan
##cir
048
##veli
coup
Better
##lati
##bula
##erre
Naked
##dul
##vak
##aine
##xion
Bliss
1859
Hammond
##laren
##usse
Digest
Models
Farmer
Fame
NFL
Penelope
##ties
##lst
Domenico
##alen
Theory
Military
Martínez
Notre
Kramer
##nada
Return
underground
Otte
Ezek
Lies
also
Linus
dad
##rise
1284
gate
##biet
##rema
vene
channel
##éd
Barber
##tier
1803
wing
779
sever
##ég
1303
##aux
##fim
##landi
Motorsport
Aerospace
##chine
##lama
1869
ESA
entry
##ssio
Eintracht
Bremer
Gerhard
Carpenter
Tampa
Theresa
##fing
##iting
Luisa
Ground
Meiji
Formula
September
jobs
Fighting
Stories
Loser
videos
cgi
##mum
##green
##geo
##uva
gift
dark
iri
948
##oste
##jing
##inu
##phia
866
##pide
##sine
##rots
##fini
Johna
1536
Eagles
Chandler
Della
1241
Cheney
Caucasus
##igne
##uire
Moran
##vesti
##vski
##kti
Disco
Notes
Tours
##hout
Kendrick
Wizards
Corse
##wari
Fifty
Bonaparte
##ianus
soul
today
deb
little
organic
dragon
ỗ
060
##DK
953
##yga
1806
##zes
##tach
##akov
1245
##rime
##nul
1315
##graphy
Unity
CBN
##jaya
They
Musical
##rte
Paddy
Serra
##efe
Goethe
Madeleine
Laurel
Barbados
Tucson
Mean
Erica
##mpong
1877
Kristian
Tucker
Doll
Guyana
Antoinette
Porte
Vijay
##tern
##grade
Waters
ware
##omba
dne
1474
908
1510
##bbe
##hlon
national
##rees
##pera
##nno
Laba
##nzu
Protection
##rgan
Oasis
Darling
Archie
Clock
Peters
Bedford
Tribune
Rhein
Goodman
Eleanor
Rowe
##pend
##prey
##iving
Touring
Element
Trophy
Dakar
Bono
Baru
Carrier
Sánchez
Egg
Steaua
##naro
##feln
Partizan
yi
lhe
into
##ions
IK
links
S0
latitude
##trem
volt
986
##gami
##mons
941
994
pioneer
##să
##ility
west
039
##ssie
##blin
##és
##dari
Manual
##BOL
Jagger
##itano
Matthews
extension
Lounge
Ronda
##atan
Tora
Norte
1814
Student
##dman
Sheldon
ữ
Connection
Fries
ACM
Blok
##cali
Zur
Leningrad
Hitchcock
Quant
##eville
Singles
Hands
school
ele
lain
942
DIN
##usan
##arn
pure
row
##oros
dig
##fet
Sylvia
1826
##nyi
##arta
Bello
##ronie
Brick
##iral
Verde
Clifford
Wanted
Gupta
Salim
Planck
##irli
Doyle
Seychelles
Gambia
Hurt
Celia
FAA
Butch
##rsk
Piper
Vanuatu
Hawkins
Dalton
Minogue
##kso
Fonseca
crash
Spain
Zie
nl
harm
bonus
lume
##eko
3e
dry
connect
##wim
glass
##bber
Belt
1735
##walt
Border
##anon
Laos
##kada
Cove
Harbour
Walters
Peninsula
Emanuel
##anes
Dorset
Roda
Amon
Georg
##gene
##stellation
Finch
Elias
Samoa
##edy
##gali
##iler
##aran
##sdale
##unit
##sov
Marius
##later
Passion
Keaton
Roja
Therapy
AKB48
Cassidy
Legion
Sender
##ampa
Treviso
Cabo
1824
##emu
vari
##data
poche
scho
##prime
every
##clin
Simple
##cure
District
##oms
##vision
ara
##iens
Lune
##oren
Lenny
##ende
Aida
##ester
Fifth
Benoit
Knowles
Another
Enrico
Buch
##wati
Dorothy
##mber
##sya
Gustav
Perl
Left
##qvist
Augusto
##achen
Novgorod
Giulia
Ranking
##lasse
Impact
Hayes
Suku
Carlton
##lica
##rdini
Galicia
##akan
##dij
thing
nr
ed
977
##toe
naj
safe
butterfly
##print
fish
879
##phis
Eno
iii
Nelly
##jio
##ctive
il
Korn
Taipei
1302
1855
beer
##raba
##veni
1822
Avon
1225
Roque
Imperi
Riviera
Isla
NES
##ulose
##canti
##dole
##umba
##saurus
##idge
##male
Steele
Wanderers
Reis
Depot
Molde
##markt
Nadia
##Bride
Chiesa
##isso
racing
IEEE
078
fresh
947
como
913
##assa
Pond
##ahu
##weight
##zas
Site
Romance
034
este
ger
JJ
##market
Hearts
##seid
WK
1136
##ló
##zah
##iai
##zir
trap
962
##mada
Stereo
Asie
##plan
Industry
##isson
Intercontinental
Ravi
Peel
##arra
Flint
##rms
Wilkinson
Ibn
Minor
##nico
##enter
1846
##tead
Rankings
##witz
Powers
##mota
Salem
comeback
Crist
Isabelle
Pirates
1625
##iani
##ivos
##ppan
Hatch
##otu
050
##vun
hita
##kich
rank
##cover
##lala
ash
##hain
##enna
##rosa
##rmal
1016
##istic
vand
##pling
e4
before
791
rol
Mg
##aun
##umm
Piece
action
##tate
##redi
##icht
##gain
Hazel
1785
1293
Subway
##ology
Hampton
##etro
Cine
Laurie
##tella
##rium
##sari
Clayton
Lufthansa
##bourne
##vni
##fession
Sheila
Automatic
##urion
Lonely
Russian
dancer
Clancy
Eisen
Campo
1856
Starr
##esen
Charlene
##two
Pape
Handel
some
##rv
til
##diq
factory
##WR
settings
##vou
##mban
Vehicle
##ocke
##chas
unit
##lant
hole
##zul
1312
Productions
Harbor
Canadian
Pretoria
Rajasthan
Interactive
Wyoming
Hakim
Grenoble
##uze
1795
Maxime
Lombard
##mide
##iane
Breaking
##dito
launch
Demon
Marines
Alpine
##izia
Beatrice
##aen
Palmeiras
##viene
030
there
È
##lini
070
mais
##monia
vid
daily
taj
991
##xer
944
ind
lady
067
##lagen
##rla
##place
Products
TIME
1813
train
Oakland
##reate
Draft
Irvine
Booth
##tah
##timo
##aire
##rki
Stab
1879
##tid
sodium
Greatest
Sinaloa
##quila
Dunlop
Psychology
Zeppelin
##hora
##visa
##woman
##team
##rets
##ntar
Globo
martial
##fere
##igia
##ungi
##wg
ohi
1345
881
##echa
quick
##nham
1818
int
##elt
##sty
##lek
##roft
##fix
##glie
1852
1844
Cooke
##agan
##neur
Prado
##oze
Hyderabad
##isch
Christoph
##phere
Sendai
Canterbury
##arie
##vima
Sparrow
Welsh
Byrne
Ignacio
Esto
States
PAL
Score
Falls
Bogdan
##ingham
Nuremberg
1135
Teixeira
enzim
1695
Bride
Arcade
Dall
##rran
Detective
##deg
pez
blau
##rnet
##cang
range
Blacks
##gold
fant
wife
pri
861
##kab
Lucie
##rika
Flag
##mne
##rden
1783
##auto
1368
edition
##eld
##pang
1375
transfer
1075
Seas
##yos
##lies
Battlefield
Arabic
Boulevard
Content
Meadows
Maribor
Galileo
Casablanca
Sidney
roads
Font
Labor
Independence
Valls
Colombo
##lae
##laden
Newman
Mitch
Goldberg
Yusuf
Finding
Babe
background
Gers
Guangzhou
Karla
##dze
##figur
niger
##atus
8th
1212
lato
##iton
1801
##gae
1035
983
num
royal
SED
give
1291
##cone
##hte
##nien
1322
1511
##ering
1402
Maia
isa
pale
##ece
##tora
##kola
Clyde
##uzi
Shepherd
Coppola
1834
##roux
Santana
Maa
Camilla
##rono
Berne
##bold
Nils
Value
##olas
Flowers
Josephine
task
Lobo
Hahn
Wadi
Wheeler
Bernstein
Tigers
##litz
##arne
Feld
##cima
Nel
##reti
Nadu
component
Andrade
##ijk
992
easy
1828
spot
##lach
pun
##coe
kjem
##eos
##loma
Contact
Eliza
caps
##lj
Arno
##stre
Calgary
libero
Eurovision
##urne
1175
Emir
##finder
##rrell
Riccardo
##pens
##ptive
Snyder
##nnes
hry
Comme
MCG
Minneapolis
Campos
Quito
Letter
Krista
Theme
Nicholson
##dition
##erse
JavaScript
Split
Firenze
tel
technology
##dé
where
##aker
##omen
##ulu
D0
lib
dress
Vintage
vita
1066
choice
1525
hep
##iat
##soni
##rela
Production
Holm
##lho
Tras
##pent
recovery
Lulu
Warfare
IGN
Alive
Mansion
##ère
Suffolk
Estadio
##rek
1475
Fest
##rling
##abb
Maximilian
Gamma
Wer
Karachi
##cri
Burt
Vladislav
Engel
Owens
##doni
Found
##uben
##ssig
Phys
championship
Normal
##gera
Antwerp
Voltaire
##patrick
Prize
Lothar
Rede
##elma
developer
##dhur
Killer
##tide
##tress
Rosenborg
Suicide
Vogt
##vier
Sankt
##kui
##lost
1821
##books
Sword
##ssus
##tik
##zana
##usu
##rilla
rpm
jih
##last
##ales
##yard
Milton
##rly
Chem
1410
1765
##lare
Arne
Minute
Andhra
Rochester
Cynthia
Whitman
Als
##laar
Loma
##kow
Source
##emma
Hellas
cello
Dass
##nice
##enze
Lodge
##laga
##igua
Leandro
Tada
Dhaka
Sabrina
Phoebe
Emiliano
learning
Cruzeiro
##imene
Alphonse
Pole
##mens
##sos
##fus
##hti
1156
##maid
ẫ
sad
why
##kate
##KP
##ores
women
1152
##iwa
1st
##ococcus
##oof
1662
season
##tma
Merry
silver
USC
African
##kang
##ival
Exit
Arie
sari
##mea
1283
1145
Nostra
Souls
Merit
##inia
##lino
##aad
##osphate
Aldo
##vano
##aal
1338
##erin
Scholar
Robbins
Richmond
Maas
Ferenc
Thornton
1287
Drie
Sleeping
1776
Knights
##baum
Newell
Multimedia
Alberti
##vei
Benin
##tler
##ndra
Elijah
##cline
Creta
Figueroa
##logi
ef
feel
1279
das
kom
enjoy
##seri
##most
##mki
rate
corse
##phus
drift
proti
space
1258
##rner
Soleil
kaya
Parte
Held
Aleksandar
##ruda
social
NTV
Constant
##ssen
Keynes
Bihar
Sitt
Stevenson
Cheshire
Lahore
Schubert
##iewe
Quality
Risk
Flame
##mez
oest
Typ
Lancashire
##riam
Archer
Early
Hare
Ida
Atari
UCLA
##hner
Ribeiro
Instruments
##inae
Dijon
##bben
giro
##iest
##voa
random
##ío
##rima
##gau
##itur
##posit
##ifu
Been
1352
##bett
Cave
##pino
##lana
##uder
rotor
1791
Marke
##onge
Frederic
##gono
Kraft
Guru
Medici
Marguerite
##velle
##lid
##omme
##orne
Carlisle
Sylvie
##lha
##duk
Ferry
##worm
Domingo
##osaurus
##ares
Aber
Maji
Eisenhower
Holden
Harri
Lower
Frans
Crime
1857
Reich
##ady
Indianapolis
Ballet
##esis
alien
Sunset
Burundi
Bianchi
Both
##vica
Elf
esi
Mirza
chom
must
##source
birthday
viso
##osti
##bki
ass
bil
##ihan
##tender
##presso
1665
Tatiana
##cada
##mins
1833
Lech
##asse
Hún
Hits
##ways
Indy
##gile
Castella
Barney
ANC
Mineiro
Goldstein
Thatcher
Nathaniel
Dort
Highlands
##vestor
Anime
##mpu
Morton
Ipswich
##vero
Current
Odin
1592
Thirty
Gould
##vane
Univ
##urm
Reign
Fernández
Clive
PCR
Yamato
1644
Films
Zelda
Mortal
Mehmed
1823
epi
##gant
activa
##nama
ana
##nog
wood
##yja
##llis
1811
##inal
##kta
##gru
1194
Survival
Olive
##inea
Winchester
1304
HTTP
Rudolf
##tera
Gaur
##nare
##sized
Hertfordshire
Trabzon
Sidi
Haifa
1715
Babel
Sole
1774
Wilkins
Trouble
indie
##sed
Council
Northwestern
##tko
NSW
Cecilia
Angers
Indoor
Eight
Portable
Groningen
gallery
##czek
Jansen
##zá
Poco
Dias
Begin
##nister
Leopold
##olta
##masi
##sico
Pedersen
Huesca
##aps
tsunami
classico
Feel
##sday
express
Regina
Ẹ
suri
Doch
##nki
carte
used
Rêu
956
ig
##zle
1348
coach
Elmi
##ERO
Romani
maker
Animal
##novo
##imu
##bine
##tles
##auri
half
1816
##axe
1311
Isis
Near
##mul
##outs
1221
Shields
##rista
Aurelio
##igata
Newfoundland
Heinrich
Laurence
Zee
Dartmouth
##ziya
##gade
Warszawa
IATA
##tago
Southwest
Version
Bachelor
##zano
Coming
Fuchs
Hals
Theodor
Staffordshire
##tert
Ludovic
##gnet
Booker
Cueva
Plato
Hayward
##ules
memory
oman
bern
Ò
brown
bell
inni
town
message
##alis
##cem
##asan
##kad
##omir
edit
1264
##volo
##zed
##lfa
modi
##color
Essen
1298
bez
1231
##jek
1685
1323
Tiny
##kli
1098
security
Jain
Training
##plar
Reality
Plays
Entre
Varela
Rudy
Doria
##rdin
Basso
Liebe
1809
Elba
##tari
1257
##ligen
##ès
##tual
Mountains
Prins
##sno
Hansa
haute
##geri
##osis
##mant
aust
##locke
Oost
Edit
Funny
##orat
Lorenz
Fue
premier
##éh
tell
sans
1205
##kje
##ifier
jung
##yta
##rana
##amh
##iye
##fine
##dla
Bianco
shirt
##dej
Original
Fanny
DFB
1037
1296
1282
1211
1318
1355
Fairy
1289
##rica
##match
Charity
Banner
##sque
##sby
Nama
Brewer
Glover
##agg
Jawa
##erto
Caledonia
##hrys
Polk
##eros
Katz
Willow
1667
1512
##eira
##pah
Chronicle
Diamonds
Funk
Mathias
Weg
##vari
better
##bust
1394
Eds
Feeling
Tiberius
hope
roof
##mile
kay
pia
wear
Cats
Abby
##rane
##nds
even
Wonderful
kata
##oline
##eza
##mbit
##uai
1808
Chopin
Dieter
1741
Lakes
##hisky
Countdown
Edith
Ferrara
Bombardier
1829
McGill
Cancer
##bric
Brill
Aug
Howell
Byrd
Truck
Alger
Opel
Tornado
Salazar
Afganistan
##aling
##agawa
1786
Vogel
##illon
Springer
##fta
Underwood
Albany
Person
Were
Mondo
##inet
##eady
Browne
##ables
##nits
##into
##stand
Without
Neri
##gato
bel
1119
1185
veri
##pedia
milk
##uku
pur
metall
fin
Lights
##tton
1609
kill
##laz
visit
##laya
1516
Elisa
serve
mother
clock
##lug
wedding
1782
Bij
Shoot
##jord
##pari
##ded
##flower
##sli
##chem
##rike
santo
1827
Roberta
Bowman
##cier
Wyatt
Maja
Carole
Armando
Giles
Warrior
Zion
Concorde
##llar
1328
Moun
##vle
Novi
Taman
Peggy
##ards
Pune
##stria
Department
1837
##maker
Tales
##mata
##mier
Mesa
Dresden
Mehmet
history
Cycle
##erz
device
Tobias
Dyke
##naar
##gens
SQL
Albums
stato
##ôr
sort
##lans
legi
##rty
ibu
##dens
sei
1793
##lpa
##nista
##slu
1251
020
Loving
biz
Japanese
most
Tres
bou
##bini
health
##usk
##udu
att
934
##mmi
trade
coat
1772
disk
1063
CW
##ehan
Fact
Spike
##lima
##lund
##giers
1843
##niche
Azul
1021
##niya
Holloway
Thorpe
##zeera
##jel
Brod
Defence
1229
Athen
PGC
##vacy
1575
Wonderland
Welch
Astro
Indie
Hutton
fastest
Speak
Mystery
##mès
##tnik
Erika
##celli
Bilbo
Bratislava
Senior
vocal
Editor
Randall
Connell
##uran
##lory
yet
Birthday
temp
fila
##uas
speak
heat
basic
##dir
##imen
##lok
Rider
plays
1752
1252
##bron
##itas
1379
Many
sexto
##sef
1562
##ffre
##pres
Chief
##diction
Millennium
##lzer
##bide
Hemingway
Carlyle
##kant
##kowski
Claus
Hermann
##sene
Bourg
Platon
1249
Augustin
##zli
VOC
Rising
Norris
Bochum
Aux
Osbourne
Liste
Linkin
Gaon
USGS
1768
##dogo
Portal
##idea
Noir
Dolores
Turing
Murder
Gabrielle
browser
##cept
##mosi
1405
Jimi
standard
slo
1429
##cza
##oky
##hto
##tting
trust
Buddy
##rove
1337
##sole
Use
limited
Dato
##éa
Organic
Punk
##fect
##lì
##ilt
Ciudad
##zier
Bernat
1336
##erot
Maharashtra
##cene
Marne
1842
##cere
Simons
Aguilar
##taro
Bruxelles
Helmut
##sworth
##stag
Auguste
##nese
##timi
Anniversary
##isen
Peer
##rrido
Gabriela
##weg
1192
Hamburger
##ally
##sville
Towns
Concordia
##franco
battery
Salomon
Constantine
Browning
Mines
Fuel
Crash
Brenda
McKay
Habib
Benito
##pping
##ystem
##kkor
##rici
ligt
Khorasan
Maybe
##ensa
close
ez
gray
kam
nog
beton
Volume
ting
##anas
oil
##ymi
néo
1317
##tale
change
couple
1007
##taw
##luan
soon
1718
act
Melody
##ulco
##rax
1645
##table
##irn
Chicken
1552
##front
##ners
Kobayashi
Birch
Mackenzie
##ffice
Gamble
Corey
Sutherland
Plata
Reine
Assam
Agnes
Vernon
Willie
##ulations
Eleven
1327
Ratings
Primo
##nation
##rook
Gloucestershire
disa
##orto
##reich
##zych
Merle
Nowhere
Elaine
visual
Photography
Bahia
##rissa
##itaire
##eje
##risto
pdf
##opia
Hours
Escobar
##wley
Arias
Yesterday
##ript
Cavendish
Makoto
calcium
##dura
##lius
Rollins
hou
##f6
##ltu
##trag
Két
should
ado
##yki
Weil
stan
10th
wind
##ggia
##inen
Boxer
##rgo
Ego
##lens
1426
special
performance
##rij
1138
1259
Underground
##landa
##dik
##lari
##liya
Atelier
##jal
1128
##ager
##sert
##nesi
1763
Fever
Strait
##amas
mye
##olen
dollars
Rabbit
sector
##enburg
1748
Italian
Scout
Rhin
Valenciennes
##rdan
1773
##shme
##vona
nav
Ett
##oles
##suki
##leman
Primary
wide
Manson
##ductor
gradi
Fredrik
source
Blackpool
##racia
Among
Patty
nation
##bare
Zappa
rival
##tir
luxury
##zm
##etin
Pest
sah
tad
None
fie
TBS
brother
1612
##elio
##imon
Lur
hotel
1006
##thus
##cora
gaz
Library
Chaos
hala
##bali
##sini
pace
college
##zare
##lni
##mane
Matter
##fund
1392
Andersson
1632
Greater
##usha
Tourism
Sanctuary
##eland
Purple
1725
1052
##nita
Wir
1642
Riga
1572
##tish
1441
Rohan
Monet
Executive
##zat
Caldwell
Bombay
Pietro
##versa
Harding
Selama
1238
Communication
1764
1758
##tist
Edmond
##yni
Zeta
Something
MySpace
##pris
##tala
Animals
##caster
##lise
##ujo
Osiris
##RNA
Chez
##ziger
livet
Within
1215
apo
##omu
catalog
1321
##rila
##cule
local
Plastic
rit
##tow
1097
##cture
1692
##bata
##ivat
lima
##zation
##otte
##dne
##taker
Director
PHP
Housing
1807
Teenage
hydrogen
##yel
1326
##tract
##lka
##ewski
##iere
Meet
Caen
Gazeta
##lais
##veren
Joint
Masse
Damen
##lmer
Holstein
##kking
Arnaud
##ckman
Arms
Neal
Oswald
Rivers
##kota
##tane
Aquila
Darkness
##bela
##saur
Edouard
Ewa
##roga
##vim
##latt
Novel
##iji
Yates
Duran
##bka
Neill
Rosemary
Lindberg
##marine
hr
voo
##nny
##jas
##dose
##ibu
##icu
##wolf
##mek
days
##rout
1485
1271
1206
Christy
##lotte
1524
1214
##ckey
1307
grands
1635
##nej
##arse
##lope
traffic
Banco
##omas
1407
##llu
1335
1784
Capcom
1254
##iers
##egas
1587
1224
##fiq
1071
Fluminense
Vienne
heavy
Cherokee
##umoto
1745
##ulus
Georgetown
electronic
Rt
1755
##ggins
##teri
Burgos
catalogue
##cae
Regional
##hler
##aden
##juana
Chihuahua
Dexter
##eze
1255
Graduate
Braunschweig
Transport
Martel
Cyr
Gregg
##stol
Maccabi
1046
Geld
##ndal
Murat
Rostock
Bandera
Fool
Remember
Title
court
##éu
##mle
##áh
dit
duca
dure
##cna
sud
Comes
dal
1427
patch
1544
1038
##onu
1237
zone
1095
##hada
##scher
##clu
##maat
1498
1101
##mse
##ader
##iste
alternative
1314
##iek
Calabria
Griffiths
1286
Consulta
##unge
Interest
Sears
Minds
radial
1453
Saunders
Federal
1759
##riti
##jevi
Parade
##uent
1184
Rodney
sign
Raya
Till
##fico
Elk
Harlem
Christchurch
##coming
Kurz
##adh
Anno
##vida
Auge
##zoa
Djibouti
Oviedo
Firth
##dach
Olson
##zig
Bridget
Unha
##elde
##cona
address
paj
SMP
ships
##phoe
dove
##dero
##imin
##xeno
spider
1415
1268
exit
mand
could
sit
##TION
##bond
##apan
##ivar
##ground
1056
harr
1582
1555
1358
dei
##cata
##gana
pers
##sce
1452
Sokol
##uns
Profile
##stellar
Common
Quincy
Generale
UMP
Selma
Cause
def
Botafogo
##ctus
Lausanne
##ensis
Wiltshire
Charleston
Perkins
Cunningham
Gast
Sainte
Fermi
1262
##nasta
##lna
1603
##ratos
Currie
##strada
Avril
Frankenstein
##volta
Nobody
súa
Ancient
quer
Bassa
##telli
Saar
Sra
Bernardino
##lord
Daly
##cello
concerto
telo
byte
Groove
Habsburg
prix
SmackDown
Promise
wrong
lub
1472
##ration
##citi
hus
1213
mira
sense
bei
##fio
age
##done
##pso
##copa
Bandar
1204
ata
quantum
##riff
##biy
##ysk
##itel
1274
Monterrey
Habana
Bayan
1228
1266
##zny
Ort
Goya
##fano
##elen
Wolfe
##vania
Farrell
Anatolia
Andrés
Olaf
Excellence
##azu
##phorus
Application
Rhapsody
Own
Nagar
##oja
Universities
Psycho
##dere
Parsons
three
##eja
Matilda
designer
Armin
adventure
##tega
##quity
Organization
vinyl
Mirko
##ossa
##djan
##itor
Miriam
STS
##utus
Severus
Casimir
Kawasan
1329
1688
ned
##eyer
1619
lav
1617
##lko
##wder
uno
##itive
##pero
##cit
1157
##cute
Messe
sci
Because
##dry
##iec
1017
##beth
##ache
##bato
##awn
984
hart
1247
##jst
##wid
1054
vector
Zimmer
##dista
##jil
Augustine
Commonwealth
González
Taurus
##resse
Galilei
Imam
##agna
##endra
Hanson
tant
Waterloo
##loni
##gnac
amateur
Rosenberg
Forster
##unu
1386
##fern
Endless
Roux
Freak
##iller
Inoue
##moor
##rdon
##bili
mentor
##uld
##hwin
##yton
##ptic
##ites
Siria
Teacher
Viru
##cella
##rera
##inko
Kraj
moh
1702
dar
jen
##yeng
##laza
fia
##motor
1227
1794
##lân
Piet
1442
times
1777
##loride
1313
1235
mind
1596
Legenda
arm
1602
1604
##cado
##mman
Priest
##nchi
hall
storm
Sanz
1517
##lech
1506
agenti
##mbat
##zit
##uir
liquid
1074
Sexual
Celebrity
Turismo
##eption
Sommer
1325
Kinder
##etting
##iona
Michelangelo
Adventures
mitt
Persian
1346
Smithsonian
##torial
##veta
Rail
Mercer
1343
target
##czem
1246
Syst
Constantin
Partner
Vitoria
CSU
##dub
##else
Hora
##aldi
boli
String
Python
Michaela
##duce
Holocaust
##erine
lever
teve
Mouth
Judas
##stad
Ponte
hardcore
##iration
unik
##gora
##smann
torres
trat
poc
Unis
cartoon
1203
##dova
Junie
##iban
1616
1403
##bna
1332
##atu
##duz
front
##sili
1605
Complete
##anno
1652
##niti
holl
##leda
1344
fail
##jud
##gree
leste
1623
Lands
Twins
Cyril
Weir
##rii
1422
Nowa
valve
Unix
##minat
##hren
Rembrandt
Klub
Sardinia
##xte
Mond
Kalimantan
1796
894
Limit
Terminal
1334
1465
##quita
##pele
##brice
1409
##iance
Garnier
Constantinople
##tsch
1787
Cedar
Orchestra
McLean
##smin
Snoop
Competition
Platt
##hoda
Admiral
##ums
Lazarus
Giancarlo
##fte
cele
##tza
Rocco
##gé
##celi
mura
Nazionale
Comet
##kuk
advantage
##anat
##kson
mobil
##pron
jag
bunga
lig
##fasi
nothing
##tores
such
Deer
##flow
##iát
1189
GSC
Ranch
travel
##open
##rost
##leen
##lier
1668
##vile
##pital
Triangle
Lino
Upper
Listen
##pais
##tò
Pilot
##active
Bronx
Adler
##esco
Survivor
Meer
##zca
##zade
##pont
Hebrew
Cary
##cilla
Louisville
Disc
1339
Velasco
Thorn
##lity
Rate
##pé
Montgomery
##nyo
##wali
##gah
Leona
Rayon
##inski
##rnes
##ition
Madness
##ssia
##tori
Tenerife
##ilm
Lozano
##etat
Morte
assist
quadro
Lajos
vara
neuer
lah
yok
lagi
##aus
rus
suoi
chart
maximum
##tris
Pub
abu
born
sports
##jov
crystal
ging
1709
##opus
alle
##itu
Oval
1143
##zet
##using
##icos
1353
1721
effect
##ister
1495
Scene
Apr
##pio
Thorne
##inkel
##nala
Integrated
Culture
Yard
##wani
heads
Terence
Paulina
Janssen
Karnataka
Marvin
Mets
Chamber
Believe
Ingrid
1698
##quus
Livingstone
items
1737
Kelley
Dupont
##wide
week
##erland
Derrick
Higgins
Missing
Minutes
Morro
Tallinn
1719
cura
Sabine
Witt
Lyle
Sanat
flag
##eski
Elephant
Critics
Basin
Truth
##ector
##DNA
##huizen
leader
wait
##ckie
cont
bare
less
moment
##mpt
##leh
1618
##mint
captain
yon
##mde
##èk
1308
place
063
##kula
##psa
##dish
##aff
##ief
police
jak
member
Drum
friends
1377
##ments
keep
jp
1356
fur
VHS
ễ
##rmen
##dab
Minas
##iness
1492
compound
Baroque
Welt
Kawas
Florenz
Dewan
Nights
Benson
Concerto
milli
##lberg
Kada
Kathleen
Stig
Regent
##minen
Doe
##dnie
##urance
Quiet
Nagano
Crimson
1722
Lyndon
##dling
Unesco
Unlimited
Niagara
##curi
Mort
1412
turbine
Muriel
Osborn
database
Schulz
Epstein
1585
Franca
##bada
##nelli
fand
Flanders
Guns
Chronicles
##fter
ARN
Summers
queen
Serial
9th
##vod
têm
##adow
mall
ord
leva
##ncu
twin
1508
##cote
##onna
##onos
##enza
wish
1723
los
Rules
Juli
##oer
1686
##ié
und
##ced
information
Edna
##sala
Adult
still
##anic
1424
##halte
tax
Copper
Course
##omes
Nihon
1226
##hammer
##raaf
image
Noong
##sford
Barbosa
Durban
Erich
Bismarck
Petroleum
##venti
Premiere
##twa
1306
Hawks
Rousseau
inga
Olimpia
##leni
1798
1324
##trus
Engl
Avery
##igue
##sbury
Silvia
##giani
##vigne
talent
Shining
Acosta
##nede
1578
Hogan
##iny
##rics
rota
Flavio
tvN
Reference
##dula
##gret
Affair
Ile
Magdalena
Tolkien
Labrador
Louisa
Alegre
##nant
Timur
##anak
remove
Vasile
Nato
##boat
##barra
##kerk
Loire
##reiz
vers
Bullet
found
nagy
engl
040
1502
##fera
##pă
##jut
##nery
available
Organ
##xis
##onga
1771
training
1712
Britton
##ags
##oru
##ents
080
##cito
##nji
Cosmos
##fica
Tropical
Restaurant
Soto
varem
##wright
Theft
1674
##kana
Guilherme
Revenge
Ponce
##uchen
##lgo
Auvergne
Reserve
##lsey
1743
options
Eritrea
Branch
Memories
Autumn
Rescue
Rothschild
Bowie
Brewster
##abel
##rchen
Sister
Marley
Hancock
Puccini
Protocol
##jeta
Moulin
Tunis
##jeda
##onica
Turki
Exclusive
instal
Adama
Jerzy
##onie
both
Promotion
Guerre
fel
##ourg
bed
product
##kva
##usto
alan
bomber
##isma
Follow
##vus
Ọ
ing
##erne
coli
fra
tatt
transit
2e
without
golden
##pts
##wia
something
##ées
Going
##dron
1714
##tki
Leave
1704
sera
##ongan
##nku
##itar
1223
Really
Morse
1588
##akat
Stafford
1385
##fik
Montevideo
##gió
Naval
Addis
##cole
Ange
Munster
##ovie
Everett
##zna
##eres
Turkish
Gustave
Automobile
##quier
1767
1657
1086
Lucien
##taine
Newark
Shooting
Savannah
##elta
Northampton
##nnie
Titans
##viy
Cult
Prevention
Through
Patton
Ernie
##iar
Vanguard
Iulia
##abia
Hesse
Ulrich
Petrus
##stique
##mmel
McMahon
##kane
Gentleman
##dahl
Palau
##erer
Fino
voto
sell
##nano
shape
sino
freestyle
tune
2543
##oby
##vado
arch
##limi
##jeng
Aan
##slim
##ogu
gent
##ente
##dani
Cartier
##heer
##ives
##este
##rque
##medi
1085
1711
south
1527
Exodus
##ynt
##reer
Steffen
Growth
##haven
Wildlife
##rington
Metropolis
1248
Chemical
Forget
##riva
1406
Saxony
Utrecht
Mato
1675
Burgess
##crat
##pá
Guerra
1586
Dundee
##rinde
Sarajevo
##kuma
Horst
1397
##gues
##erze
##nsis
1263
##éro
Duarte
Pfeiffer
École
##bras
Fontana
Herz
##meter
Drago
Mercado
Palma
Faust
Northwest
##nim
Bacon
Frau
Cristo
Quintus
Harrington
stars
Borges
##sht
Daytona
##lates
Alban
Pauline
Ares
Dirty
round
##lasti
Universidad
Sudamericana
Grube
Abigail
Breton
##illing
damage
math
León
##anze
##entu
tou
muu
##dico
##ggo
Oder
rio
1118
##bora
1797
##mii
manche
##inam
##nur
##qan
##album
##pik
viu
1438
##nys
##ilia
##õe
##rity
1717
1549
guard
##national
##rage
##zei
Hij
1564
1521
##pato
1611
##uton
##rene
##tard
##tista
##rond
Renaissance
suite
##arto
fitness
building
Construction
RTS
Lowell
Havre
1369
1651
Kuhn
##rza
##nian
##fah
##ioni
##eia
Sheridan
##iker
##vitt
Abad
##zek
Eclipse
##dele
Cea
##cible
1351
Reuter
Yuta
Popular
Itali
Antonia
##wege
IEC
##nale
##yai
##ography
Baxter
##ald
Shandong
##wain
Pescara
##irt
Hawker
Prior
Lust
Bray
##tát
Gregorio
Noise
##enty
Material
Shire
Quintana
wikipedia
Sikh
##bello
##enin
Broadcasting
Voldemort
Nirvana
##inis
##ntos
##anus
##nics
Sage
Verne
##gios
##chier
press
Blast
lov
mph
##etan
ford
1637
ako
##doro
##tela
1244
0001
Lovers
TV3
DOM
VY
##iate
nuk
while
Abs
vila
##toon
##edit
##kum
##finity
##enos
sweet
hair
boyfriend
##odu
1236
Machado
1261
1267
##gine
Smash
##romo
1137
pretty
1218
Batista
Applications
1354
Premi
##ncourt
Metacritic
##sted
Rudolph
##ovna
##chers
apply
Laval
##igde
Sancti
Aircraft
sapiens
Aleksander
1769
Jakob
Volk
Clinical
manual
Rapids
runway
##chow
CSS
painting
##meyer
1648
1265
Sohn
Fairfax
1537
Saxon
Marques
campus
##aggio
##mente
##anos
##aque
##lten
Guadalajara
Dolls
Ferran
Returns
Fuentes
##liste
1342
##pulse
Clemente
##pose
##zinger
##mission
Nusa
Edmonton
zona
things
Hulu
Hagen
##roix
Bernhard
##uilla
Cabrera
##obia
Such
Geral
##sume
##eber
Brest
producer
##hore
Amour
Maldonado
Mussolini
Catalina
challenge
Files
Suárez
novel
América
##lons
input
##tda
##mli
touring
door
aga
1469
##iin
##lne
##java
fet
sos
1515
1416
##ures
Arctic
1301
##zis
##deu
##sett
##dok
##tich
##leto
d4
##mí
##nju
##umen
##cama
##kent
1073
coming
##tten
##ection
1309
##holm
ABA
1622
##tras
Speaker
##nner
1653
##lende
Bunny
##strat
Definition
private
1387
Hoya
##west
##sina
##kajima
Cobb
Killing
##want
##omos
Eyed
Bauer
corona
Acad
##cchia
Ghar
##heme
Lois
Meat
##owicz
1778
Bergman
1766
##ratu
Ames
##uren
Brandenburg
1533
1589
Nieto
1671
aur
Parti
1573
##sent
##keeper
Suit
Heights
Creation
Broken
Kappa
Potomac
##quette
believe
Ezra
Nell
Secrets
##harf
Articles
finger
##rial
Internacional
Bock
Less
Atkins
Brunswick
##chant
Fontaine
Consortium
##vente
Clair
Amiens
Amateur
hardware
Later
Dimension
##arty
##irse
Eugène
Ursula
##orre
##cleic
Córdoba
##lty
##quito
##bbia
Trujillo
##chromis
Ardennes
catch
span
zes
np
##aso
vad
##xiu
cree
extra
amb
1278
1679
##chos
1216
##chien
1532
because
##tige
1297
machine
broad
guide
##ilio
##bne
Episode
apa
ov
Selle
1466
Eros
homo
##pira
radi
##dino
1341
##wach
ish
##stas
jer
Cornelius
1281
Esta
##each
station
Letters
Goddard
1577
Thiến
Sawyer
Barker
Slater
eta
##vika
##zani
Lynne
##odan
Lafayette
Humboldt
Levant
makes
Progress
##iera
Connolly
1481
##beek
1096
Général
Ein
Diary
##meer
Manufacturing
##ovia
Haley
Mildred
##ppu
Neon
Bruges
##vind
Fars
##asti
Prieto
Loud
Dogg
BMG
Stage
##bate
Kiel
Alois
##pei
Ils
Tonga
Croton
MTA
Interview
Deadline
##ilig
Cuenca
Zanzibar
##yawa
##vide
ligue
its
soprano
mano
bem
uma
##dma
##pok
1209
lar
1401
ave
human
sont
1493
##oia
own
inside
1598
PS2
##plain
##dria
Volta
##mick
##mmar
Hannibal
1207
1316
Southeast
Rojas
1615
1673
##nete
1751
Kina
Twain
##posito
Medan
##rkan
Margarita
Jammu
##inus
pseudo
Hirsch
1482
Artemis
Prin
##wards
Lawson
Stati
##dite
Atomic
1187
1459
##essen
Andrej
Spitze
##jka
Hopper
##tika
Svensson
##posto
Livingston
Emergency
Armand
##itation
Guest
##vska
really
Horror
Unknown
Austria
Paulista
Certificate
Algarve
Vader
1631
Aude
1731
##rgus
speaker
##hanna
Aguirre
##utar
Worcester
1779
Strom
##ccupy
based
##aches
Argentine
Veronika
Martini
##uny
Pacheco
Harald
Veracruz
Martín
canton
loading
ensure
dud
modu
SUA
##unis
##uhan
##onder
kao
##anha
1277
1404
##bst
##bito
sprint
price
##sok
##kker
1568
funk
##ized
aria
law
global
##zt
nine
Armor
##jes
##inni
##cuda
##lger
##tand
1534
1256
balance
Danger
##reus
##garo
rugby
Potsdam
Commercial
Convention
Aix
GmbH
Fatal
1746
Floor
1569
Eredivisie
##yant
1732
1624
##mitt
Oleh
##sare
1817
Larsen
Scientist
1742
Amore
##pest
Frida
1239
##gka
Carsten
##building
##dlo
##rky
1526
##qin
Origins
Discov
##nsey
Words
Concours
##thur
Prof
wagon
##pani
Andra
Feet
##rtas
Constance
1736
workshop
Calderón
1445
Raúl
##volve
Esch
Alvarado
Rossini
Parallel
##éry
Monika
Meier
Resolution
Danish
##ohr
##ansa
views
Moreira
Spanish
Midway
##iati
Gloucester
antena
##illes
Deniz
language
##cte
ssa
##zell
##vam
##ilu
1545
1449
##nje
1359
vil
aus
##ongo
##angan
18th
alb
##aniu
joj
##pate
##gă
beni
eyes
mana
1707
million
Daughter
1186
##atra
1669
Downtown
##rson
##ivu
Bhd
Vanderbilt
Neumann
Imagine
closed
Hess
1701
Treasure
Midlands
Dangerous
Blow
Hoover
soir
Cervantes
##dels
Puig
Initiative
##ingi
##pora
##arz
##fts
father
Vasa
Cessna
Mackay
##sita
Applied
chassis
1636
##akon
pounds
Sons
Darin
1349
Godfrey
1727
##ization
Reef
1566
##czyn
Wikimedia
Studies
##lega
Herzog
Pages
Broadcast
together
Doris
Moonlight
Empress
1431
Weaver
Blonde
##orum
trumpet
Royals
Object
##wala
##ál
Plants
Stad
Juliette
##athlon
Presbyterian
access
##enia
##ibility
##lara
##puri
Shadows
##udan
Jesu
Associazione
drog
##ás
lik
mine
ready
mese
Official
nya
doctor
1093
1395
1501
##dure
##conde
##mption
1276
##vete
##gage
1509
shift
##emble
road
Bosco
1414
sola
##mione
ces
delta
1626
Majesty
styre
##nzi
Meeting
1584
1579
teams
Marte
Meredith
Female
OST
##armaceutical
Auschwitz
Brussel
1682
##zuma
Rouen
##ssem
##cens
Eliot
Welles
Malone
Desmond
Claudius
hosting
Princesa
##heid
Enzyme
1535
Gail
Hurley
Saskatchewan
Marjorie
##cient
Processing
franco
Wien
1661
Alsace
##xid
##sterio
Dodd
1432
1614
Manuela
Goes
##leri
##veld
Giacomo
##bart
ITU
##vity
##akt
RIAA
Duval
Haag
Salle
Commodore
muller
Patriots
five
Vichy
Yourself
##andu
##asy
modern
mig
##kung
1528
##kaj
wet
1749
aux
1505
1448
TCP
##bent
##zja
bear
##zzare
1546
##ellen
##four
large
through
##undo
1269
##mire
##bene
JAPAN
Pony
##mna
1621
1468
arcade
1541
Brody
Export
PSD
Gypsy
Juba
##laine
Zoran
Salisbury
##ified
##uate
##yrian
Duffy
1455
Movement
Madre
Boyz
##ovat
Label
Yorker
partner
##yramid
1563
Damm
contract
Antigua
Lesotho
Resources
##lation
Selby
##ndri
Saints
##haga
##dalen
Moritz
Hurricane
Lords
Selection
Belgium
Arlington
Merah
1154
##ourt
Behind
##cout
Shelley
##mbra
Poison
Selim
##lagos
Thousand
Macbeth
progressive
##Base
##innon
ranking
Jl
Lato
##roon
##SQL
##zok
Indies
volum
##ads
##dyn
##bij
##tito
Bumi
##klas
dab
##kio
Chance
1437
##stair
1601
##vate
##tomi
asr
shell
##vah
##lings
Christians
record
##sad
##tones
gli
1147
legend
##meu
##kali
1372
##viu
Hydrogen
1364
##nage
##aram
Inde
Marisa
Carmel
##vance
Oktober
Palazzo
1655
##vald
Weekend
##mortal
1547
Loved
1384
Enric
##udra
MacDonald
Technical
Soares
1567
Ahmet
Rights
dir
##orte
Linden
##mphe
##aday
Briggs
1146
##ants
Une
##rile
1504
1672
1382
##vora
Norma
Sander
##glas
Madhya
##vaca
Hendrix
Doherty
slave
Loop
Castell
Casanova
##father
##rida
Cassandra
Hollow
Dominican
Harvest
##enham
Roten
agency
Bonus
Forma
Bronze
TJ
Louie
##aje
##ference
Manfred
##dley
Nye
Radu
##rrow
Kosmos
Bones
Sixth
Morten
Vox
##hoven
kernel
Padang
Québec
##lendi
##gment
##duras
api
##bih
hod
##nology
cz
vette
##WN
sia
automatic
##sah
Vana
##held
##dolo
##chef
1103
##biter
##ront
##fod
stati
##oking
girls
1428
Liszt
Saxe
Register
RFC
Sorbonne
1606
1658
1542
##dence
Tomasz
Lutz
palm
##ingen
##alem
##river
##Leod
Commerce
Hindi
Nathalie
##guen
Buchanan
Ariane
##liet
Reilly
##kovo
Fink
Kaufman
Lynx
Saddle
Weston
Dickinson
1628
##mill
##icom
1253
Tanjung
Negri
##gste
Videos
##beta
##nade
##stru
Munro
##rrea
Jakub
##lski
Janne
##iven
##ption
##velt
##inar
Inga
bridge
broke
1678
Susanne
Stille
Speech
##odor
Ilha
##rala
##bros
Denny
Josip
##mert
Zaman
Farewell
Burning
Someone
Cumberland
XXIII
Toda
##riebe
##bier
Oldham
##ní
script
João
Nueva
##barn
##égal
senso
raw
##nadi
liber
##tius
1729
picture
mee
mimo
##nze
##oed
1458
mga
##dosi
##lase
kopi
tail
Wisdom
já
##iami
Hidden
Midi
1607
wil
##tue
1543
##nnu
##korea
1272
Roses
1693
solar
##sona
1381
Myth
pierre
1724
##iak
Roku
##goda
Voyager
Bury
##ikan
Forst
1561
Interface
##zco
1434
##liko
##scope
Slayer
ere
##ingo
##uter
Stokes
##sato
##bolic
Dietrich
Eure
Ripley
##eche
Fabrizio
Inge
##ulator
Manon
Nuevo
Penguin
unlike
1391
Around
1728
1697
Reggie
Fortuna
1656
Biology
Luzern
Rosenthal
Stanislav
Schools
##skar
##rits
Camden
##katan
##nidae
##mig
Anura
Twenty
Jesús
McDowell
remake
movie
##zog
Rumble
Persia
Mighty
Routledge
Afro
Omer
Computing
Repubblica
1177
Márquez
##lder
Crane
##prise
Aubrey
Dorado
##dros
##runt
Thief
##ithe
Blackwell
##writer
Philharmonic
##dola
Exil
##unter
Primer
##reng
middle
##iach
Él
Olav
##onare
Dado
trio
##lette
##laan
UU
grey
belt
index
##dica
1396
iba
1388
ans
##uara
1376
lighting
##két
traf
##sano
##lice
1357
##pne
direct
1705
Frédéric
Bowling
Township
##lland
Connie
##éré
Pasadena
Erde
Enterprises
##vino
1243
##htar
##anza
Nestor
Groot
1646
Monterey
Marcin
platinum
##mpur
##fens
Confessions
Harriet
##zett
##dira
Deus
##tlu
##uction
Strada
##hert
##cim
##inie
Horace
Cassini
##ceno
1464
##pelo
Legal
Ibu
Oricon
Prison
##systems
Jalan
Metallica
Chiara
Cena
Antalya
Vaughn
##lias
Packard
##orus
##ppet
##ciano
Lose
Bretagne
##pini
Castile
##losa
Prestige
Bring
Would
##jica
##vall
lost
Loyola
Díaz
Polly
##ruch
Lilla
Belmont
Savoy
Piotr
##puis
awards
##iego
Benevento
gain
biti
1558
1r
anna
ằ
##kah
german
aquo
1583
1217
##kup
##gare
quality
vel
##desi
1706
Rhythm
1608
lega
1417
##mend
minimal
##cist
Oral
##pene
##ntre
Hockey
##psis
1649
Duisburg
Sox
Garland
Interior
Humphrey
Parry
##fonia
Partie
Aten
Environmental
1571
1514
Eit
TF1
flight
Friuli
Syndrome
Serrano
##euse
##hoz
Commission
Muda
Observer
Melvin
1389
1363
PBS
Latina
##iter
##aras
Cricket
1643
draw
##roje
##zira
1538
1559
Crowley
Segunda
Springfield
##rmes
Magnum
complet
Catholic
##drom
Suriname
prototype
Pela
Rhys
Silence
##rdia
##aise
Coliseum
##rcy
##nish
1565
Trial
##lja
Background
##saba
Krebs
Uncle
##tei
##jylland
Christiane
Susanna
Schmitt
Partit
Distribution
Anak
Mendelssohn
##osse
Einar
Invisible
##zzle
Sachsen
Romane
Males
1744
Even
##hoek
##rett
##ations
##ours
Libre
Nicolás
Scientific
Hist
##uwe
gates
skip
another
##dse
teu
Takes
kuni
##ieve
##sive
vant
##acy
due
##otus
Rough
##mica
gut
##ncing
##bard
##mla
ova
##zzy
later
##ikin
##fes
##cuum
##gig
1595
1757
1494
##fare
##gler
graphic
words
default
1634
Heavyweight
Garde
Kinshasa
##rso
##hold
Brass
MSK
1365
Bitter
1518
1747
##ijn
Niels
1419
Rabat
1638
Chapel
##jom
##itti
##combe
Falkland
##mack
##versi
Lucius
##eret
Favorite
Zde
##ennes
Baden
##bila
Dillon
Ziegler
##holz
Dudley
1639
##sama
##lena
license
##vela
##lapa
Helene
Lt
count
Italya
Designer
Printing
##cts
##éri
Fonda
Torpedo
Marianne
Palacios
Estudiantes
##berley
process
Peterborough
playoffs
gall
##anen
Entry
##rsti
torre
Dover
boys
##avat
Hobart
Sounds
Jennings
Oskar
##eler
1691
Paus
Christi
##rche
##ahl
Wallis
##loch
points
##ntes
Río
##izi
Playoffs
##formes
shipping
nature
##aler
maa
##onde
##eken
company
sive
rod
##uos
yol
bright
##iled
##aat
##mme
##olie
##odia
##nders
1522
##idat
person
##wne
##kona
##sola
vista
1378
1347
##zuli
airline
##tys
santa
##aio
##ifica
being
RK
##sif
Katarina
Federation
management
Crossing
Tato
Domain
Cristal
##doras
##cious
Peso
##ledge
reader
1664
##reau
##ssis
Cullen
##idos
##riko
##zos
##aret
1756
Pada
Kuna
##igt
Dharma
##meno
Traffic
##hier
Marlene
Advisory
CDP
Wife
Gheorghe
##trine
Maureen
Prescott
Blanchard
1373
1487
JG
Syracuse
customer
##ndia
Bogor
Vocal
Lagu
Staff
quattro
Cerro
Albuquerque
##kea
Administration
Dumas
nitrogen
##fend
Kraus
Rutgers
Blum
Lincolnshire
##pler
##turi
Oud
##tze
Effects
Woodrow
una
1663
neck
##ainen
Riau
##iou
##ccus
Heidelberg
Perrin
UCI
Oblast
Céline
Ente
Ayn
Meuse
Corsica
Francesc
##zki
Database
##renada
Cortes
Vittorio
Eileen
MacArthur
##pair
Dietmar
##zky
Tarn
Joana
Innocent
##talan
dame
Companion
Wiley
bits
##gnes
fell
rojo
sporting
dala
vann
1411
diz
garden
running
rest
viva
##gone
foi
##aina
KHL
adam
yos
optical
rule
cost
EK
kjo
strong
##tendo
##vole
berg
toma
Supreme
ses
##dans
rata
selle
##tyn
living
XML
##vage
equal
##bens
print
mina
##tude
sina
iris
##hry
##klu
unde
1361
steel
Petite
##trix
rosso
1421
Peu
Tous
##visi
Angelica
Oxfordshire
2558
##ndar
Leadership
Nadir
Guarda
depot
sultan
##elius
##diya
##gku
1467
Proceedings
##tava
Amman
Muhammed
##stadt
Practice
Brookings
##mania
License
Papp
Zhejiang
Shuttle
banca
Bureau
Barat
area
##hardt
Lourdes
Trofeo
Progressive
##elsen
##arity
Patria
Guadalupe
##inin
1754
##mbar
Kaye
international
Hund
mars
Judd
Kongo
Lombardo
Belfort
##vici
Rule
bili
Normandie
Darmstadt
between
Irma
Between
Kapoor
##usel
##lce
##cats
##sii
##eris
##gny
Orne
3166
##èvre
dont
ago
grow
original
mab
child
ym
##ening
##rodu
##thas
##grid
snail
##ponent
tower
cet
Ester
##cony
field
sama
##masa
##alta
##lih
##guita
##estro
##biu
##tice
1488
Tears
1551
1689
##nbar
error
Somme
##cliffe
Wende
Actors
1529
Rune
Duna
Paola
UCD
Itt
Cousin
##inska
##yler
Hofmann
Henk
1781
Syd
Burnett
Cartagena
##mira
##baki
1738
Voz
##fors
Cinq
1591
Comedy
rand
Violin
1761
##nstein
1641
Maarten
Hastings
Sous
Femme
Transportation
##aille
letter
##izma
Herschel
Nilsson
needs
##lema
Ebert
Peck
Mihail
Morrow
##gung
Scream
Phyllis
##xida
blind
##tosa
Boone
##onen
Grau
##teca
Taste
content
Associated
##quilla
##rode
##niai
##riche
##ár
##lul
contra
##enario
##valle
Nadine
##bero
Wrestling
Baptist
Ferro
Petersen
##reis
Wrong
palace
##nosi
services
Rote
Scala
Fighters
Warning
##wki
Irak
pelle
horn
request
vite
##vaa
deliver
tas
##koa
plaza
mede
##edd
Bergamo
unico
flow
bod
##asto
problem
1576
Nauru
secret
gama
##nting
Ova
Dans
##argo
##bore
Tunnel
paper
transform
1548
##spect
##lej
##bling
Address
Bande
##uster
SSR
Erwin
Thriller
Economy
Norbert
1762
1593
Diez
Juliana
Kamil
##meralda
Ravel
Charlemagne
dina
Navarra
Assault
Ulla
1273
Eski
Uwe
##mette
##lmi
Vicenza
Expedition
##kner
clarinet
Jest
##ktor
1319
1684
PhD
Sion
##borne
Unite
##cimento
Workshop
Folk
##lden
Observatory
##vist
Gibb
euros
Quinto
##ckett
Cada
smooth
##ndor
Dada
hands
Whole
Reginald
Providence
location
Canale
##ccia
Girard
##vour
##mosa
nema
Horacio
##vati
Sinatra
Holger
Sébastien
Hooker
##tent
Pardo
##cius
Macdonald
Grave
##cina
Neste
Sisters
Campania
##gert
Artists
Gustaf
##kob
Tintin
Programme
##cedo
##ected
Napier
Rochelle
##jim
##adan
loser
ose
Mabel
NCAA
##hrer
##azzo
##sliga
Aladin
##Ỵ
TNI
##belli
##lated
amat
sample
aya
collection
1191
output
victoria
kod
##vira
pump
fall
ien
beach
ede
##lets
application
##logo
##bord
psi
1554
##uia
##vue
##dust
mali
Sailor
##úl
ito
##uras
##luat
##derd
##kkel
Bands
##shed
Linz
1696
##relle
Burma
1374
Estrada
##itia
##unia
ARD
common
1519
Brigitte
##nara
Talbot
Villanueva
##kirchen
Arco
Quarter
Overseas
1331
1659
1613
regi
Cantor
learn
##cology
Cultural
##urst
Salamanca
##oire
##okan
1627
Haynes
Piazza
##tiga
##vation
IMDb
Marshal
ill
##èle
Konrad
##gres
each
Leopoldo
SVT
##rase
cents
Fountain
##ikk
##ability
1483
Fernanda
##slow
Thessaloniki
##pada
Valdés
Documents
paso
##ssion
1681
Piedmont
##eiros
Tiga
##sada
Madras
Agua
##bund
##érables
Greta
cine
Steiner
Schon
telenovela
Switzerland
position
##rito
Afonso
##nida
Turm
write
##biq
##ulan
##kkal
Byen
##ridae
##menes
##erit
Foto
bleu
minutes
##pua
sef
laba
marry
wake
##alas
dona
peace
namn
##tene
1491
delivery
##iks
##teli
##gst
##hidi
##cev
battle
kami
ide
##zta
stay
viral
UHF
winter
seco
##eras
someone
##uak
##cium
Havel
Víctor
Buckley
Breakfast
1553
Otis
Loeb
Pons
Arad
Heads
##jda
##pasa
Kirchner
Ulster
Kurdistan
##jave
##sele
##ltan
Essa
##atories
##pue
Beaver
##eux
Lunar
##wane
Navigation
##penn
Corporate
Melville
Société
##inci
Falling
Engineer
Gauss
##bieta
##hausen
Panic
##xana
Birth
move
stone
Feb
Dynasty
##dicate
Worlds
Whitaker
around
pasta
##rega
1677
##hawks
Tanner
##éta
Ulysses
1713
1703
Happiness
##vitch
Bahn
##mesi
##bly
##blatt
Hernández
##demi
children
##yder
##ije
##bjerg
##deka
Porta
oxygen
##gura
##vna
Stanton
##rker
##ikon
Enigma
Goodwin
Bowen
theater
signal
Asturias
##quist
##hode
##tici
##sino
DSM
MLB
GNU
##lessa
##ayan
Orléans
##ntyre
Independiente
Cosimo
Viana
transmission
##ghing
##ddo
1444
tape
bli
nest
monster
1462
hidden
##gía
Bulu
rise
hear
eng
zon
andre
using
##lata
boat
##vade
##affe
1507
##lanti
catena
rider
uns
##mta
belle
Zao
Chili
SDP
WWW
##nces
Personality
porta
##zala
##kell
devices
moun
##jot
cinema
##cock
Bandung
Buda
lines
Northeast
Kino
statement
##seh
##sker
##ranno
Yukon
Rodolfo
1531
Brabham
1734
albumin
McCoy
##avor
##india
##siya
Blume
Relations
RTL
Brahms
Translation
Fisch
##zka
Netherlands
Fellowship
##auer
1443
##lades
Professor
whole
TGV
Corps
Madsen
Winkel
Raleigh
##gav
##rosse
Barlow
Sweden
Amigos
##ruit
##aida
Rizzoli
Ingolstadt
Kort
##bors
chance
##sette
Gertrude
##jul
salsa
Mining
Roca
##éna
1629
Benton
protect
1597
emir
##huri
##muth
##vence
##enau
Derbyshire
1126
##uks
Easter
Tout
##yden
Landing
players
Org
blow
##utti
Guzmán
Carmelo
##eille
Different
##ksen
1581
Recreation
drag
##school
Hunting
##sts
Ravenna
Jaume
Emanuele
##avio
These
Lugo
Archibald
##monds
McKinley
Schiffe
Carthage
Troyes
Assembly
Siti
##gula
Deze
Civilization
shots
Digimon
Scottish
##adle
Mongol
Condor
##messe
Gaius
##iidae
##pelt
mater
prim
extreme
join
bloc
tend
ridder
##mits
##ckel
eat
oma
Felice
##nthe
##lir
1539
quam
rules
weight
1523
ise
##itev
since
Homme
##cited
loves
##lada
pedal
##nove
solid
##muk
Bees
inne
india
conde
Tako
##mico
##pian
1733
##kte
##ndt
trim
hold
1439
1457
1489
##nique
Houghton
##acia
marble
Spectrum
Balkans
##cido
Scandinavian
1418
Dickens
1451
Sigmund
Perdana
Guevara
1436
##nius
Homer
Geiger
Pound
##esto
Boots
Raffaele
Rutherford
##aros
##onet
Relief
Rumania
Glacier
##Pherson
Joer
bond
trial
Chávez
Identity
##halle
##jaga
Vishnu
##icio
NDR
##ored
Calais
Alternative
Orton
##aile
Psychological
##pado
Arnhem
Colony
##itarian
##roka
Negara
##tena
##izing
Nightmare
##ldes
hasta
Enemy
Simpsons
Jerez
Feature
Wessex
USAF
Esse
Slot
Slade
##ité
Celle
Nickel
##onom
blogspot
Malang
Mannschaft
Twente
Maiden
##ication
users
Grammar
##ulas
Passo
Pampa
Sabina
Patent
##ís
##traf
##fiel
Married
##state
##berto
Herodotus
##runk
##brella
##nome
Merchant
hija
Auditorium
Dewey
SAD
##leva
##dius
Lotto
Esporte
##rés
Horizonte
partition
##ére
##worthy
Phou
Stephenson
##jede
Revue
Sabha
electric
cca
##aft
acu
##hlen
Tiet
##nten
venue
Absolute
##uah
accept
joc
coral
haya
yn
vsi
##sí
##sant
nel
##pido
##pret
E0
nes
Mga
square
##seen
##pito
Nagy
##prem
arte
##vchi
##esso
1454
1383
waiting
basi
##pka
state
trail
Agatha
##werk
Zeit
##unsel
Nurse
Guides
1716
Sick
Circus
Durango
Welle
Chatham
##enar
Reunion
Willard
Dayton
##karan
Andromeda
command
Grange
Bergen
aflat
Associate
##ilis
##jala
Menor
##ully
Morgen
1433
##philus
##riven
##many
##oris
Collegiate
Multiple
##fold
dynamic
Gert
Tyne
Response
Municipal
##onor
Berta
Magda
mann
Verdun
Straight
Compton
Vickers
Alpes
NYC
1362
Dalai
##lsen
Michaels
Dancer
##menn
1486
##stis
Sonora
Norm
Pirate
Yankee
Sept
##eten
##celles
FIS
Silla
Talking
node
Leuven
Beckett
##pena
Working
##enstein
Vide
1446
saving
Wally
##diat
##égi
##keta
Buster
##gles
##bado
alcohol
Showtime
##brate
##glen
Daha
Renée
everything
##andre
Gilmour
pico
Mansfield
Rommel
Decca
wilde
##ojo
teacher
Donnell
##ados
Meteor
##eiz
##isin
Hidalgo
attack
hire
atom
Winners
##lín
Comte
Gardiner
Hubbard
##rako
Orang
##oidea
Kedah
##uridae
warga
##onidae
hil
##tend
##mais
##ths
2535
rail
30th
##lanan
raz
1556
dee
##nud
##anger
13th
sole
##zara
1423
meri
nana
ask
Conca
offer
loans
##nnan
##typ
return
loop
##imit
##sland
##ryk
simple
##uvo
kiri
##erar
##ká
2555
##uten
Banca
##kind
##elar
teste
##anut
Marais
Seventh
##erte
##system
Collier
Namo
1413
1687
##lako
graphics
McGraw
##veda
Firma
Sacha
1461
1753
Hutchinson
barrier
Territory
##fields
Aire
##vori
##irat
Ignatius
##luka
Halifax
Meter
Italiana
1676
viola
Gerais
Maynard
Machines
worm
Mechanics
different
##ilas
##arle
1683
Ì
Northumberland
Ballard
Liège
Middlesex
##kland
course
Buddha
phase
Eurasia
Calling
Bears
##onar
Lyons
##koro
##wiki
Derry
Against
##woon
Giuliano
##ptation
Marcia
##iselle
Greek
Pueblo
Dach
takes
##liff
##zew
capture
Emperor
Frieden
##jci
Curse
##banks
Côte
##mington
##iformes
ARIA
##elis
Superstar
Certain
##guera
##jano
Stod
##loaded
Raquel
##ddon
##ekt
Fresno
Archives
Cromwell
##dila
Rancho
Ministry
Maestro
##zot
Asylum
score
Stéphane
Denmark
Kopp
Pahang
Sturm
Falco
Panamá
Sigismund
NXT
mani
sent
avo
##arden
sheet
pls
dil
fixed
RMS
##oons
##venu
lore
Ringo
bij
##tih
##child
##zyn
##ôs
##tý
yang
aid
messages
fred
##erst
##ysta
ij
##geon
##sort
luna
##veg
##hips
##dada
ment
##lif
native
##oak
heel
##lined
2549
Used
bando
these
Elements
crowd
Writing
Mitte
##elling
Tanz
until
##esc
Recife
##ecta
Along
##ebre
##ceo
Guillem
##haca
Medal
##heit
##zde
Harcourt
##oje
##cars
Morley
##wami
Vilnius
McDonnell
Kampung
Flood
##iros
1594
Lisboa
Month
Tome
Bulletin
Frederik
Tierra
Dix
##asta
Commander
Oscars
Nickelodeon
Somebody
Brazilian
Brief
##iling
working
1408
guitarist
Benedikt
Camus
Opéra
sharing
##bies
##lement
Getting
Calcutta
##tida
##urde
Loreto
Anything
##ission
Reggio
Fiction
Beatrix
Hause
Chantal
Blanca
Features
##lige
##fora
Panzer
Breda
Extension
Extended
##noli
Tyrone
fighting
Terengganu
Boulogne
Linnaeus
early
hann
hed
mae
mato
##niu
receive
soap
chess
does
Esa
15th
dome
Chaco
vom
tenor
##aos
lade
##lisi
##ivet
vue
##qat
##aging
1398
##vasi
clar
##iae
urban
##yka
##rds
##blast
1557
gali
seven
mild
professional
killer
##gid
##ngen
1708
1647
##stati
Radical
holding
##iniu
Roach
##diti
Croix
##uait
Woolf
1654
1484
##lika
##iern
Dalla
Langley
Jabal
Bingham
Tirana
##wagen
##eile
important
Gillespie
Amadeus
Cargo
1633
Auch
Condé
##vinen
Pluto
CDU
Internal
##cript
Schumann
Codex
Mathilde
Boulder
##hael
##ertu
Quand
Patrol
##rze
Steelers
Fuego
##ploy
corn
Gazette
Lucca
##geu
Leif
Judge
##iser
Dictionary
##pona
Siegfried
##urar
Ivana
Argentino
##reden
Buta
Desde
Arles
##prano
Antonius
Ziel
Fins
Mosque
##kern
21st
Barrow
Ages
capital
Brien
Wilkes
Playing
Governor
##élie
Fleet
##utto
##rait
##inge
limit
Crosby
Fujiwara
Springsteen
##zong
##stina
Pamplona
Catarina
Veneto
##celle
##tile
##ntal
##ieme
disc
##dja
Satu
pela
Verdi
##sonne
Inner
Minerva
Maastricht
Dominion
NHL
nomen
##vajo
Huelva
titik
understand
sik
##wung
ens
tak
ato
##ttes
##cuma
mint
tid
creat
##jis
##zii
orange
##atos
##rvo
sugar
hour
##ruck
quoi
##dza
novos
chain
saw
seen
##zus
Bugs
##vud
##asure
primer
wild
Walls
answer
Ugo
McLaughlin
Granger
Member
Italiano
bronze
##bedded
##cular
Being
BCE
1574
Kjell
factor
Cantal
Cid
##rater
1497
##itis
Experimental
storage
Bethlehem
become
##erste
Bottom
##wska
##lande
Strand
##iella
Carlson
##mell
Montréal
Mein
diploma
##metric
Partnership
Blitz
skills
##elor
##ruh
Maud
##mberg
Aquitaine
Poland
Singing
Prayer
Marge
Garibaldi
Ecke
Coelho
##vada
##tany
Stockton
##voor
##felt
##trat
##erts
##ispa
##through
soundtrack
##éni
##tati
##béu
##érie
Hicks
Soler
##edt
##ities
parent
Physics
Cabral
##poche
##pelle
Monument
##pheus
Espinosa
Wilhelmina
Mojo
Sharpe
##gata
mapping
##gnano
Padilla
##bire
Lauri
##lisch
##gement
Committee
Internationale
Physical
Carmine
##iska
##vini
Matilde
Recent
Guggenheim
Bland
##ecker
##emann
Miquel
ambient
Luanda
##eger
##teti
##óta
##oval
Monts
##nches
##ères
Euler
##iske
Wolfram
Huxley
Paraná
Torah
##stes
mRNA
cristiano
rico
makt
##tons
pw
TER
accord
##ubt
suma
rex
dob
voe
##ieur
cold
ner
1694
##dles
aim
duty
nas
month
##herr
array
grande
connection
purchase
vital
Until
##utan
Grade
pair
Roller
paus
##JR
fog
those
Yn
healthy
##rupt
degree
blood
Arras
Hilda
##lyse
Voor
##ogy
Moral
reality
Tigre
Conway
Daphne
##itsch
##marie
##illet
##bson
Afghan
Berliner
Severin
##elj
Poole
##fahan
##ucht
navigation
##icki
Elvira
Freund
##lley
Romans
1726
Beaufort
Allende
credits
Gora
Gabriele
Henley
##vena
Numbers
##roda
Cowboys
Norway
Jis
paint
Rugby
Siege
Enough
Dies
##ssé
Mental
##itte
##éon
Arabian
Negeri
Greco
Avignon
Meyers
Behavior
##cked
##nition
alde
Oaks
Hume
Goals
Parra
Yankees
wheel
Bosni
##gast
Conquest
Moving
Thinking
Cummings
Divine
Humberto
Method
##gott
Maximus
##paro
Bassi
Ultima
##tary
proud
##liana
Gladys
Bucarest
##cence
##nomen
Gelo
##lsk
##aken
##ntara
##olia
Morelos
Barbarossa
Schott
brain
classical
esto
##imus
##aak
Putnam
##dige
##cón
Pembroke
Seni
##ceps
Péter
trombone
nome
##nial
Criminal
Balzac
LSD
##lju
Hajdu
WrestleMania
Ioannes
##rdu
##ingar
terra
##rolle
##oks
hale
##chod
##been
banda
##nana
personal
##úe
##hando
##lila
jr
hos
##teg
vidi
specific
##onsa
eden
##lude
pilot
##ometer
sob
##elem
aan
edi
zat
tir
given
enough
animal
gone
##jwa
wit
fil
##idt
tools
egg
fem
##gies
##jaa
yellow
##nito
##kog
##uum
##belt
##misi
Jolly
##ritt
##dono
Giants
Château
Dubois
##dija
Schreiber
Mandat
Kemal
Laboratory
##vader
##ntis
education
##tare
Weinberg
Jericho
Guiana
##tello
Fairfield
levels
Moldavia
Émile
##della
Ones
Dreyfus
##cili
##brug
##kst
##mental
##uvia
Presse
Revival
##pment
pour
##ndes
Bernadette
Goose
Telephone
##kiz
arno
##pata
Lillian
##iten
Tartus
Hodges
##stras
cluster
Limoges
Cardoso
rally
Yet
1463
##inat
Recording
winners
value
Pedra
##brun
Haft
##unds
Puebla
Conde
homem
weather
Nazi
##patra
Icarus
Chair
Poitou
Cure
Astrid
##mande
##upu
Falcons
Armata
Spezia
Acre
1393
##usz
##chter
##orno
1496
Producer
##sja
##ummer
became
against
Kubrick
Contemporary
Neustadt
Wert
##rusade
Vengeance
Randolph
Gérard
##byn
##monte
Presents
Clermont
Knut
Framework
##chmann
##alog
idi
programme
##arius
hir
Skinner
Besar
Filipino
##aner
rent
##otes
Encore
##mán
Segura
bassa
Carta
##sund
cancer
##bald
mixtape
Gómez
Darul
Castel
Pyrénées
##padu
Mittel
Guayaquil
Supply
create
tym
oda
colour
##due
sets
cruz
sic
##âr
B0
american
##smu
koe
kò
bost
timer
##thes
bbc
lights
##okk
##aam
##sò
##jell
natural
dreams
##sius
##zung
##vih
##cension
##avu
term
spring
##eul
2542
pò
during
ili
##aia
##aju
marco
##cani
hali
ort
erg
##voli
##dete
##spring
advanced
seat
products
##itus
Environment
##kler
##anica
Fortress
Alman
Arbor
wire
1739
##torio
franchise
Amt
foundation
bottom
##jali
Prema
Vaux
Rémy
##lyi
Akt
Wichita
##ukan
##xir
1447
Beaumont
Stratford
Bunker
##furt
Cosmic
##ritz
Regan
##osoma
##tanak
##eses
##tadt
##iwal
Individual
survey
Barrios
Susana
Nouvelle
##bati
Hawaiian
Holz
##arf
Officer
Their
Franken
Petter
Anaheim
##usion
Exploration
Loves
Oaxaca
##otis
hits
dancing
Bambino
##njo
##ered
Jeune
Fourth
Should
Branca
Smoke
Otra
Saat
reason
Netz
##cik
cameo
##andra
Ioan
Bogotá
Minister
VfB
Engels
##talo
Renaud
##buru
Gilmore
##nated
Forces
Karlsruhe
Salerno
select
Léon
Section
##rimo
##usal
##lida
Affairs
Iki
##kine
Artemisia
##tato
##kles
Toulon
Pascual
##lici
##enen
##ustrator
Looking
##orren
Aloe
parallel
##lete
##zko
Quinta
study
suggest
Apollon
##yers
Orta
Soundtrack
Suppl
Westfalen
##yasa
##nasse
cili
Félix
Hartmann
Ceylon
carri
Artois
##tidae
Compostela
kinase
kot
##lifi
##tuk
##já
##inja
ook
##sze
##réa
sok
vent
iz
corsa
aki
package
mito
neutral
ecc
kita
rive
carro
##aian
11th
lid
bada
pang
liste
##hamn
##roit
giant
drum
grana
lati
##vodi
virtual
##bem
##grip
##vive
hae
supply
Trainer
##dest
Stare
Mancha
Appleton
carnaval
Juha
Rookie
multiple
Bois
Rage
Maluku
##tling
left
Ettore
Performing
masters
community
Romantic
Classics
##mation
##zent
##dern
##adel
##tako
##bilan
##dali
Renzo
Bengt
##ocht
##agos
##pies
fund
sketch
Weird
##ifolia
##utier
Uppsala
##iamo
##ising
##gender
Katharine
##kku
Doors
Nevers
##utos
streets
##iaceae
##dita
##ría
Clements
##deko
Filho
Nove
Raoul
Runt
impossible
##gere
##ctat
##kait
##rny
Volker
##úar
Descartes
##avier
##alar
##ván
Platte
Lodi
promote
Mystic
Kafka
Dying
Moraes
While
##dene
##arian
##fers
Pays
Padova
##stide
Mahler
##inato
##zania
##aste
##idh
##zina
FDP
Gant
Analysis
##stadion
##gama
everyone
Referee
MIDI
resolution
##mò
Fairchild
Solaris
##ulat
##rière
Bertha
##imation
GameSpot
Drummond
Deux
##risch
Brasília
Hispania
Mesopotamia
División
##icum
tada
oni
received
##massa
mond
##marks
energy
##hibe
rad
deck
##bosch
bolo
mean
essa
hur
##dido
vitin
##kera
sue
upon
5e
##atas
##vem
ina
comes
##koj
piece
spp
jim
ultimate
##odd
jur
##mene
##koba
##kii
##rando
##yck
##theater
##dire
##bulo
##watan
masia
Rubén
Pleasure
##grapher
Bluff
Rees
Merlin
university
Issue
##mune
##zee
Plain
##rean
##houd
Picard
Ruta
Scale
Jacek
Whitehead
##nella
##rator
##kert
Weise
KNVB
quest
##rats
Ideas
##ropa
computing
male
##hagen
Hôtel
Oru
##iglia
river
##diri
##chute
counter
Punta
##kami
##roads
Publishing
Hardcore
Bloch
Does
##roia
Alter
##buda
Hendrik
Grupo
Wilmington
##ghter
Lugano
Methodist
Medley
##cija
lose
##richt
Mestre
Álvaro
##cida
ISTAT
Katharina
Making
proto
Albrecht
##garten
Ángel
##rige
Shankar
Mitterrand
administrator
Beira
##rten
songs
Penguins
Ivory
Piccolo
##rnia
##ndola
Ghosts
##quera
Shepard
##gione
Leiden
##rero
##ctory
Directory
Ethel
Fortaleza
##tikan
##rija
##tán
##istas
Sungai
##ué
mette
syna
reading
##amed
ASCII
Wasser
Prunus
Prata
Sioux
Reinhard
Projekt
Fédération
##suse
##iako
Donato
Maior
Sinne
Libanon
##tavio
nesta
##vise
ela
GAD
##vyn
##rship
question
##ative
bring
sizes
district
##ák
soli
AGS
##ntie
pond
##taa
##iuo
zag
##dori
odd
16th
##rks
roman
Magnetic
accent
kap
payment
##banan
##mbol
keys
##giene
##uun
samo
rice
##iable
bere
##mitter
paid
##ým
##lge
soccer
campaign
Drugs
Ships
##dota
ones
character
Nilo
flower
ella
lift
##stres
##ement
##toga
landing
##inud
Fausto
Indonesian
Nuestra
Messier
##llus
Gottlieb
##olus
##dington
Konya
##iensis
##asca
##enas
Olof
Savoie
Hoffmann
Fokker
##pression
Commando
Bangor
Sichuan
musical
##birds
Burlington
Austen
##rven
draft
Companies
Soviet
Educational
Strategic
Svalbard
Battista
avant
Bartlett
Liberation
##entia
1513
##session
singer
##tira
Deutsch
MCA
##szy
photographer
Sacred
##ciu
##ination
##eding
Trois
Coal
##nino
Crisis
following
##merk
doesn
Scots
Yogyakarta
Sieg
##edio
conta
##roud
Warhol
##eku
Publisher
Finland
Kreuz
Government
##pí
##stice
coupé
Downs
Offensive
##ador
Gaetano
##inio
Alley
flute
##oise
Bonifacio
IMDB
Rare
Francisca
Camilo
Magnolia
##went
##zynski
Arcadia
Luise
Britannica
##ists
Riding
##deak
##deiro
##uros
Kiba
##mmes
correct
motif
KBS2
Swimming
##feldt
##bori
##arter
##itung
Segundo
##ppur
##iosa
Neuchâtel
##vono
shek
Drei
##cans
##icato
##version
##paa
vero
rear
higher
##nent
##tola
##ated
Aachen
gross
played
automatically
##zik
Chartres
##dier
##etik
##ceau
Vittoria
##sins
##sies
##kian
##upat
Leibniz
Bresse
##vija
##mede
Tomé
Neuilly
Maharaja
Sardegna
##punan
wou
hans
zien
##holder
##tym
##tery
##tres
ved
chaos
##etu
hors
vik
sank
tracking
doing
##runa
alas
##kkaa
##fft
##osan
##hde
fir
##jus
kur
##terra
##gale
videoclip
##oven
Mixed
##effer
##corso
Guadeloupe
Vries
Grund
development
Lifetime
Biennale
NASCAR
strip
Marija
Chine
##inou
Choir
Galway
##ciel
##eyin
Haar
##chte
Renoir
##scus
Prairie
Palomar
##atz
Opus
Addison
universal
Oldenburg
activation
Sabbath
Outside
##baret
##ctos
Kerk
Segovia
##acht
Citation
Jacksonville
Petty
Institution
##nun
Mortimer
Catharina
Famous
Zeitung
Clemens
married
Byzantium
delle
Eugenio
Jury
##metry
##mbok
Operations
##vens
Poet
Herrmann
Baird
##eté
Waiting
Batavia
Pius
##aceae
##usen
Watkins
Younger
##chert
Rheinland
##ually
atlas
##rior
ERA
Walden
Alicante
Pleasant
Seit
Knowledge
Pasquale
##oty
Witness
Banu
Author
##ceu
##Millan
Concord
Gonna
Chevalier
Todo
##iment
baroque
HarperCollins
Parkway
luxe
Hundred
##xpected
##aration
Junho
##mburg
Durand
##etter
##uite
##clama
##mpet
##utta
##kkan
Artes
Clube
##igas
Debrecen
##mist
##rons
##ibert
along
Agustín
##chner
Pomerania
##arte
Voss
Shrewsbury
##uste
death
Cunha
ora
budget
vins
Motiv
Armada
Haydn
Portuguese
##idit
others
isn
##odes
##heiro
##onat
##erici
##riks
##wicz
reggae
Schleswig
##paksa
Coles
Lycée
Pointe
Estádio
Défense
Poitiers
##raut
Auf
kati
Tucumán
##reia
##luit
Richelieu
Jacobi
Runners
Prinz
Novara
##guire
##lowe
died
anal
import
##joj
vok
atti
##auf
safety
pipe
complex
##tiny
bow
##eling
##dă
##gja
##mula
plant
##phora
possible
##oine
Tempo
##anse
sice
2000s
Nr
Classical
fact
masse
Mademoiselle
##dud
brigadier
repair
##phase
##nike
arena
island
perform
student
17th
##éi
meet
defender
lover
ell
##cek
brands
##owo
##itos
Midland
Purcell
floor
Events
##ctural
Cramer
Leading
##reut
shooting
##ovac
##erda
Fach
sexual
##isar
Garten
beri
##abat
apartheid
Dios
Corpus
Cortés
##havn
Croce
quit
Kosten
##eveld
Bursa
##arni
unique
##enga
Nov
Wight
Leonor
##paka
Teatro
##mediate
##foro
Monteiro
##lén
##hota
##trici
Auburn
Vuelta
##kken
##risi
##vention
##mesa
Cathedral
Llano
##lemen
##ajo
Pilipinas
Bavarian
##clops
Fulton
cannot
##hmann
##kale
##hild
##stig
Obra
Strings
Nuclear
alto
Elles
Based
##gual
##gination
##alde
leis
communication
Aarhus
##lidae
Delia
Dacia
raise
##czu
##plugged
Inferno
##meran
##drich
Hartley
Cité
##ndet
##kiewicz
##ocence
##raid
feeling
##reole
Above
Borough
Kral
##uncu
circuit
##namite
Lande
##singer
Tulsa
JPL
##nnis
Maximum
Vivaldi
##erus
##dean
Masjid
##nsel
drivers
processor
animation
Instrument
##uito
Chemistry
vera
Tracks
pred
Blackmore
##inosa
Weimar
##mele
rica
##iony
Paulus
Raiders
##dits
Bosna
##ngkan
##dendo
##hynchus
Pinus
Amiga
Charleroi
Gutiérrez
Boulenger
Bielefeld
##dret
##izou
ports
hours
##yid
Lise
seeds
##organic
##resu
moving
##gasi
lor
19th
truck
contacto
##urer
14th
##sters
##fant
wings
##imate
Character
trees
##imme
##enay
##leta
8D
juli
##jeg
topo
Regular
rough
casa
##jih
Ferrol
bilo
stage
##unta
##ús
##jame
happen
##xica
starb
##rating
2554
##jí
##zima
##sers
##giz
##uali
2552
Cowboy
##veno
peer
Materials
##loso
Basilica
Klang
finish
##phins
##llt
Streets
##ingan
##ptera
##eiro
##pulsion
Occidental
##zami
##brica
Bagdad
Erie
##tesi
ratio
##taja
Paterson
earth
Rivas
ORF
Buena
Jalisco
Rufus
Missile
Surgery
##yclone
Annals
seme
Document
##onnaissance
Coronel
Barnard
Bomber
1456
##iente
##heter
##cati
##ochia
##ional
Étienne
Strangers
broadcast
Osten
##dare
Busch
##dras
Monty
##escens
Schmid
Giulio
##vereign
Ocampo
Aves
##bruk
##ccion
Sonntag
##rins
##llige
Menge
Cantabria
##icis
##lny
Gaia
dugo
##gates
Umberto
XXV
Familia
##pkan
##matta
Schloss
##cide
##malt
##iation
##utes
##tende
##peli
thinking
Bolívar
Heller
##rais
2307
Knows
Campaign
##atum
Memento
Syrian
Moreau
Fender
Chairman
Zimmermann
Ellington
##uada
Waves
Sheppard
mont
Slovak
palazzo
Baseball
##eleg
Nicolaus
Beatriz
##enden
present
Walther
##zino
OVA
Seele
once
Lorena
##tipo
Petru
Friendship
Albin
Vázquez
##iada
normal
geni
Worms
DEM
explorer
##nken
atto
##sula
tys
##aboration
##phère
Socorro
##zora
##etus
Ramírez
Ibsen
Historia
Valois
nada
folk
##veze
##nden
monte
spor
voltage
pag
replica
##quant
official
##culo
gravi
##cij
herb
kui
##gien
saga
torn
smoke
trop
Bills
saha
zinc
sounds
Ulm
accepted
kB
##kce
##ík
##iena
twice
##dó
UGC
Also
victory
urbe
##xas
negative
kiti
thrash
vier
##xito
##piece
##eden
##qiy
leave
gul
feat
ove
current
##kih
##yasi
##rmann
##wamp
housing
TSV
Stadio
Mineral
##rdes
organo
Sweeney
Gotland
stal
Kessler
Justus
Genetics
tali
Lancia
Urdu
Duque
wishes
##voz
gegen
##mpia
Painting
##position
##rities
Allegro
Indre
Jubilee
##nast
##psit
Siegel
Institut
##oration
medical
Salinas
Terrace
Rossa
Blant
Réunion
Slavic
Engineers
Ferris
Hannes
##mler
Japon
Monthly
##nser
Jacinto
Latino
Colonial
Greenberg
Himmler
greatest
##ernity
Esti
physical
Resource
respect
Voyage
##initive
##pland
##lars
##ilities
##allen
Scooby
##unti
##arcia
##nyt
##ception
Curitiba
Gideon
dans
Airborne
##lazi
Benedetto
##ési
Standing
Diaries
##nilla
Béla
##ók
Stari
Marquis
Ways
framework
Slovan
Almost
Jiménez
##riana
AFI
##ilien
##mena
Vance
##elmo
##ffs
Nouveau
Electrical
Noord
Instituto
##yote
Knud
##nait
anything
##gative
Release
##aes
Centers
##zno
writer
Winnipeg
##foni
##epen
Joaquín
Marburg
##tention
##conia
##ív
Ewing
condition
##ruce
##ngue
##xos
##xima
##igao
##dsen
##uler
##kasi
##icher
Talmud
##tais
##quina
Silber
Collège
verb
Anadolu
Recordings
Campeonato
##tador
Adolfo
facto
NME
Publius
Corrado
Sacro
##igues
Lennart
riva
finals
tika
##iky
delivered
##nih
jie
barco
quel
magna
already
tient
method
creative
##bida
cât
##ânt
sail
ska
aon
north
##raat
##eping
production
aos
chief
denn
plate
Since
cameras
exchange
##sima
##ête
chair
##êre
nazi
##nima
pus
##jà
koji
##stino
##pped
##niem
kwa
##arki
##ishing
smo
##vint
marker
arti
Mexican
##xter
##dise
##vci
##vul
lake
drink
##omis
ticket
Zug
##áv
##koon
##vata
##lante
gov
##ikal
##emot
Prometheus
##uelle
##gueira
Austrian
fame
##lado
Ciutat
##itate
Moravia
Eaton
Virginie
##zte
Sinn
##apte
##hanes
##gence
ZDF
Horizons
Teheran
Period
Bajo
Britania
##disi
research
science
Embassy
Puglia
##gitt
positive
Semarang
##ikai
Montage
Jeffries
##burgh
Petar
##migo
Sucre
##eaux
Delft
##lipas
hectare
Panthera
##izione
##orna
##rter
##rias
fent
##ades
##rski
Treatment
##rnas
inventor
comic
##lichen
Solanum
##viny
Notice
SFR
kroner
##gica
##ritis
Cochrane
##drome
Pernambuco
Hispan
##ativa
Irena
Everybody
Museo
##zaren
ABD
Negra
##ratas
guitare
Ostrava
Praia
##sida
##chste
Temperatur
##teni
##ticus
receptor
Parke
##ienne
##nded
Liberec
broken
##posal
Actor
##ficial
Reason
Ritter
Fantasia
Poems
##eral
Witte
Colbert
Álvarez
Cinta
##uise
Villiers
customers
##nosa
protection
##hnt
##hese
Genetic
Muslim
##rão
##rnu
##llos
##hauer
##icate
Isidro
Carleton
##ezer
##obra
Ingen
##duction
chefs
Yeni
Inglis
##quam
Drug
Mange
Merriam
Sovet
brick
Aleksandra
corta
Called
assistant
Markt
peak
Points
path
Infine
Problem
parents
built
ground
matrix
industrial
##tski
##valla
Investigation
##bamba
known
Brno
Lutheran
Gottfried
déjà
bude
example
Cities
Zool
Armas
##wde
Senat
offshore
Feat
##inata
##idable
Chiapas
##blik
##uvat
##ufen
Sentai
Sebastián
Vendée
Piemonte
##isari
Ávila
Elsevier
sociedad
bella
##fung
dek
advance
army
ail
dera
pou
economy
prie
nef
##cios
notes
bane
minima
Faces
fiber
##lbum
sens
expert
strike
##ural
means
##cok
weekend
polar
gab
##jne
##riu
##hosa
sunt
mouth
extend
##wch
##bte
##pek
##egd
looks
Gade
##ened
cyn
##hrt
ukr
2616
allow
interest
##tii
##psia
didn
called
##lgi
##sting
##zona
complete
##zero
highway
carry
##lique
Galleria
##ennial
##erea
##dess
Libération
##uela
##rzy
##laq
Magdeburg
##tula
ETA
Allied
Landau
##ecken
Parts
minute
##cephalus
Nota
##eborg
##rzi
##lji
theory
##istrat
making
##ège
Guthrie
Liguria
##uvad
having
Geist
Sings
Ludovico
##vings
Midwest
##iren
Browns
Catalog
Breuning
Pavlovic
##gnar
##mination
Indus
##nacht
barn
quarter
##laria
Batang
##ricu
##zsa
##sart
Cheyenne
##lben
##normal
##lust
##cena
##sats
Beatty
forest
Contreras
##dring
Vecchio
##raja
##gore
##villon
##petti
##riak
Ziele
Desse
##fitte
Pode
##ipse
syndrome
Charts
clubs
Ahli
##rval
Agricultural
Exhibition
Nationale
Surat
Noire
Empty
Hilbert
Ilona
##uska
ein
nito
Norwegian
##bidden
Sandoval
Fellow
##istant
Playa
military
##bours
Huis
Bellas
##tve
Collective
Baptiste
Soldiers
Gonzaga
Huston
Gibbons
##wels
Musée
Laws
Linares
Borgo
Brecht
##esia
##quence
##bilis
##porus
Skopje
##dges
Canaria
##dicat
##iene
##tade
Rolle
Turkey
frac
defa
features
scale
general
manage
applications
##cism
##bris
systems
##lding
Archive
##monie
##dalo
##ozen
##donia
##issima
##itat
##crit
##nelle
rey
##ernes
Krzysztof
##anski
##emba
##didae
##lken
##nkan
##ktas
##ecko
Humbert
métro
##ière
Barangay
Jebel
Gallego
NED
Nasional
AIK
Brabant
Martinique
Rivière
##gada
Yucatán
##ário
Luís
television
Transvaal
Elisabetta
##ozza
warning
Branko
##eix
Ridder
Galles
fusta
hiru
##coil
kus
##trica
tina
dvi
holiday
##inate
##urua
holder
sien
##ôch
forte
##etes
cose
##ulsion
gaf
##gona
vor
least
##mment
roda
thema
bene
letu
suba
tier
##estre
##eena
doe
nei
told
bore
##ngga
faction
poll
##gint
uso
rede
##ining
ent
snake
##nung
##nika
##encia
##unto
able
fort
cells
##roise
Cello
##ctions
##ncio
##brar
Meets
##arda
Castello
Unter
##isht
defense
##sholm
Mathematics
##cise
Caspar
entro
Zweig
interface
Bourgogne
##ships
Ljubljana
##vator
##igd
##tono
##alau
Nordic
##vola
dinner
Rifle
Antilles
certificate
TSR
Assessment
Trento
Havilland
Political
##iero
Kraków
##lán
une
posts
##eister
CBE
##itie
##sore
##unted
Osim
Edoardo
winning
##meen
##logical
##sible
##huis
OBE
##osus
junior
discovery
Peking
Orte
##gend
##rende
##aries
Autor
##gasy
Antanas
##leet
##rated
Oranje
##ías
##vnet
##bhar
##phalus
##baut
##wahili
engineer
##ibus
Argos
scene
##wano
Mundial
##schap
growth
##rale
##nity
Turks
##riers
##casa
contre
##maire
Giovanna
##ronen
##mner
Wegen
tira
Sonne
##atie
Others
##ême
hul
html
generation
relationship
##nose
##pasi
Marii
terminal
##pila
Kontakt
Montserrat
Gallen
Aube
##mics
##eering
##elig
Anatomy
##mony
Grzegorz
##icola
missing
Taranto
Rakyat
##neau
Nous
##eide
Loup
enable
##pya
Groups
recent
asl
Reviews
##coach
Braves
##rtu
Tommaso
##gbar
gir
Jahn
##tzer
##cides
coro
##nyme
##tada
stem
##terio
behind
outside
Hartman
##lage
Pinang
Teodor
##yida
pianist
Katowice
Michail
Belgian
Gosse
Mundi
Isles
Agnès
##risk
Escuela
SNP
##fusa
##igny
##uwen
Brotherhood
Hercegovina
Germania
##cidae
Príncipe
Offenbach
##dotte
Bellini
##rih
##zvan
##ises
##lleen
rebounds
hull
turi
grego
stor
##pola
##mmin
##nque
izen
##inti
seng
fill
era
coma
zoon
##erum
choose
chef
citizen
nos
apartment
cane
tenth
essential
Ã
april
##lagi
##daj
null
ways
##wna
energi
##olc
##odea
##sih
hyn
##nera
##dón
ieu
##eby
##haja
een
##slid
dada
serious
heroes
Americas
##blem
fera
truth
##dant
##natural
##sata
refer
##pensa
Critical
Railroad
##names
Achievement
Mondial
##rcia
##wark
Mannheim
Across
Wort
##ikka
Primeira
##ieti
Kenia
##fand
Presidential
Canis
Boogie
##rido
Hessen
Polis
Leach
Maar
##yia
##ctar
Krause
##vois
##bergen
##banda
Christiaan
##sels
Assisi
teach
Ramiro
Pantai
##area
##czki
php
##jara
Parmi
##llino
Clifton
##iding
Dewi
engineering
pattern
Ronde
##tenberg
Category
##shof
Railway
Istana
##tvo
domestic
##fino
##ungan
##bant
##utati
Bloody
##kyn
nations
Vikings
Coahuila
##rafi
##unut
Teodoro
décor
Galerie
Orson
##duit
Almería
##rowing
##elte
##ndus
Planning
flying
difficile
##etty
##atea
Universitario
Hohenzollern
Seus
##riet
alphabet
##psilon
##inite
##sku
2538
tuberculosis
paras
##kott
Could
Spor
popular
2561
##dny
Dorothea
Region
##ramide
Reeve
Victoire
Buffy
Taking
##elles
Encyclopedia
##latz
Battaglia
Juana
##gino
Cassius
Wenn
##leur
##urre
##pidae
Bound
##lege
Nijmegen
Libertad
release
mando
Franche
Silesia
##cations
VfL
Terror
gur
Disease
##rette
##dett
##asis
Tatra
##venture
##slas
fou
##pist
##erita
taba
Juventud
satu
bars
##dors
Cycling
Anjou
haut
##ocie
poco
mare
##rgia
##llio
missed
##ndres
##pende
assembled
Distance
failed
##rimi
##mbre
##elik
##erta
##wers
agree
Schweizer
Commons
##ismo
Vinyl
Seda
##unan
##iei
##wedd
slalom
##leis
amit
Sheriff
heter
homi
Nassau
Nunavut
tunnel
##elos
##orme
Rhône
Tirol
Hartford
jumping
##erina
Dixie
##kade
Basketball
rhythm
Édouard
Hindenburg
##midae
##boru
##erei
Extremadura
NKVD
Sergej
elder
Zwolle
##glich
Augen
Cuneo
##zyk
rara
Parish
deals
seno
dizi
coast
atoma
hij
older
##yek
##joki
conto
##vaan
##jta
##pà
nado
vya
Seen
kdo
airport
cabo
cooking
##oju
##dii
lana
heet
vjet
wars
mota
##ficu
tapa
##viti
waves
syd
effects
niti
hill
shield
domo
wise
##rje
leaf
##heur
hospital
##omia
few
Fuck
25th
fortune
staff
angle
##lili
blanc
##lasa
countries
4e
artis
##pice
petrol
However
##siva
steam
alfa
success
##vost
AVN
NEWS
##ddu
##udia
figure
##osen
##llat
JAV
within
Sculpture
Shackleton
Monitoring
##taire
Twelve
charter
##uline
##iono
Conservation
##erling
Mediterranean
##itze
Banten
Terme
##évi
##nkar
AFL
##backs
##ventura
2557
##weist
##vene
##lingen
##ceram
Telescope
estate
Speedway
diving
Habita
##bno
chino
##dity
grid
##ession
##stern
fantasy
went
Botany
##raphy
Macmillan
aircraft
##logist
Helga
Nordisk
##station
Religion
Temps
Wege
Teaching
##lés
##rary
##zler
Lesbian
##stant
##ending
miles
Sonja
poor
Tanah
##sity
companies
Tenggara
Genera
Question
##ndorf
##logue
Nitra
##menade
##retti
##isty
Romana
##cile
Sivas
##dion
fear
##zti
material
Corpo
vend
Buna
##rej
permit
spend
##telle
section
##ferd
Myself
##tila
Deutschland
Vaud
Varga
##flora
models
Denne
Adolphe
##nette
stronger
##common
##rchy
##ysis
3rd
Requiem
##usso
##lative
##hrlich
Akademi
borde
##teau
##tense
##ér
Banque
Maciej
creator
##vogel
Reverend
Beaux
months
Garda
Coimbra
##etor
##zera
##nila
##wego
matter
##bladet
##kies
impression
##deva
Padua
##neta
goes
##terne
circle
##mmen
Costello
marche
Málaga
##yanan
telephone
artist
websites
pne
##umon
Brigade
##ains
minimum
powerful
##thers
rege
properties
quart
billion
solution
##cable
##liti
##bination
Dodgers
function
##ovy
award
Carrara
##éra
quantity
##gach
Schiff
especially
##uable
bir
##iary
##ór
Klima
##boga
##malen
##brunn
##vú
Swami
##recht
remember
Constable
Schule
##attu
##regar
prima
prince
Peder
Hispano
brevi
Tarragona
Étoile
Toscana
Kalle
francs
Nicolai
Pasar
Belgrano
alla
##zé
##curo
Rural
Lindl
argent
Visconti
##oggia
##oben
##bayern
Lorentz
Gegen
near
seu
jeu
hati
vive
henne
##rece
##tivat
Nazareth
height
nii
colos
saut
anv
##cota
##kend
pain
soe
##onik
kent
##uur
##sons
##yir
##nnet
intra
hari
##gte
autor
##olog
##wem
mase
silent
layers
##poste
##thetic
contour
##pida
pili
salt
##bring
Oceania
Hervé
##rrer
Jacobsen
Dubrovnik
Flyers
Jaroslav
Urbana
Emilie
Rioja
cori
##natha
Egy
##kene
##istra
members
Zbigniew
rud
Ponta
portfolio
Klan
Edvard
##final
Moser
##person
##ications
Foucault
income
Alumni
Interstate
Gunung
Lippe
##urno
Ambassador
Garrison
Principe
##toria
Mechanical
##ensive
designed
##msky
##tatt
Literary
##denza
Isola
Amalia
##okus
##loge
ideas
Members
editor
##itude
##lesa
Caja
simplex
Presenta
took
lifetime
Celebration
##dbu
##parte
contacts
debt
##baud
famous
##rales
Selva
vide
Herder
yards
Brenner
##stial
##kole
##rupted
Squadron
Peppers
Musica
Caterina
##stedt
##fuge
sinensis
reference
##ranger
flowers
including
gender
Deacon
Below
ahead
##fontein
Originals
Grimaldi
Amazonas
ward
WRC
Hugues
##rouse
Erasmus
dicht
Aristoteles
Nikolaus
Kleine
Workers
article
Hamar
theatre
tournament
##roman
##ocent
##rebro
Festa
restaurant
Sessions
recover
##enie
##mmet
assistance
eut
UNIX
##ument
##itter
result
##menu
longer
electronics
##ól
reach
Operator
Bible
owner
ride
exposure
construction
Telugu
fighter
##teria
##plosion
Bertram
##ension
##ulos
Iwan
##igante
Italie
Viejo
thought
##sica
##sza
Calvados
##upan
IFPI
chapter
Hradec
##tedt
##issons
##stère
Guinée
Légion
##arsi
##geld
Borgia
##raus
Kannada
synthesis
nucli
Asunción
Internazionale
Ebro
##erek
sequel
anders
boda
byer
berre
bosque
cause
##ând
chur
carrier
##orem
BBS
##boj
miz
##entro
muy
dura
##hku
chute
striking
kota
##tona
Blut
dus
mundo
och
ibi
maga
Unie
MUSIC
##ían
fann
sister
##ckets
##tét
##manu
##nary
ties
dood
##pern
ferro
5194
##fjord
escape
starta
##aust
testing
internal
##eite
onda
maxim
##tiek
##pione
romantic
supported
plc
agent
Landscape
Cornelia
Seitz
Zacatecas
Native
Berge
##tge
Jacoby
Zadar
mille
Przy
##pna
##pien
Antara
gaur
Mircea
##iega
Januari
##tante
Factbook
Marlborough
##nion
##eie
retail
##ést
Wiener
Autobahn
Leonhard
Plains
##arias
##bres
Asimov
Dates
Oort
satellite
Stadion
Monuments
##rnik
##xell
Estonian
Moselle
Troms
##scription
Anche
##oses
village
##butan
##gasta
division
changed
Wilaya
##zers
##emia
financial
Revenue
Confederate
##arna
Johansen
##venil
Psychiatry
definition
##zion
##gyi
##ktu
third
##astic
updated
##oral
##batan
##iras
50th
##clave
##ometa
Luftwaffe
##juma
Voices
released
##give
Léo
Tactical
Mechelen
Hélène
##unas
##teller
##tese
##baus
Energia
Junto
Puente
Ruang
##tism
##dner
##jeti
Junction
##rpen
pressure
survive
Scarecrow
##orter
##ogue
Martens
Asti
##viers
##jeli
Pressure
##ssed
##reshold
Havet
Climate
Honoré
Cuatro
fina
Budget
plane
##quent
Teams
##mbawa
##atur
Colonel
##eration
genera
Université
Horta
##uation
Jahre
might
Using
Cymru
##quí
transport
Lexicon
licence
vient
Telefon
chamber
finde
mida
##oning
respond
saved
##soma
pages
##nomy
enterprise
##cated
included
Crimes
##rken
reverse
##iese
##mci
Francia
##tatus
walking
calcul
##lhouse
##utom
##tata
Tragedy
ocean
##udence
Zeeland
Noen
##ukot
banco
monde
Biol
##erde
career
##reda
##jeri
##iasa
genetic
Permanent
##mter
##verso
##aika
##onas
##oides
Twentieth
##beni
##menta
Outer
Hainaut
Héctor
Arenas
##nesa
##tants
XXIV
Beograd
Magyar
##ír
##culata
##hidae
##ýr
Federazione
Antes
Léopold
Julián
##llion
Prato
PWI
##skan
Coburg
Magallanes
##issen
qualifying
##vatori
##poner
Sofía
##kaman
Camillo
##sest
##éal
Counties
matches
joko
turno
leagues
##vropa
Sanremo
vei
delu
armor
##ginal
seize
kale
##offer
##ekin
tras
absolute
vice
##ovu
##dly
mineral
western
imam
surprise
##sunda
afternoon
##weis
##ppt
##ntan
blot
gik
sant
eru
rein
treat
structure
bought
essence
meu
lack
below
##gii
falling
tire
fusion
dust
##tiu
##ators
##urio
lancer
bias
##owy
listen
alte
affiliate
său
##skt
##zaj
passion
Prophet
purpose
Coalition
##bral
##ssing
Disaster
Lyman
Barrio
Immanuel
Onder
##ention
Adana
##eert
##adou
Turku
##ebb
Ambos
Lombardia
Luft
Winters
Bangsa
noir
Townshend
##quate
Thought
region
Venne
Nacht
##plot
cores
##avad
Quelle
promotion
speaking
##isten
Species
##ettes
Gets
##ssant
##kort
##iology
sold
Hansson
##lje
##lono
##nore
Leiter
demand
##naire
##chten
##ared
Tibet
Afrikan
influenza
##frica
meets
##ilus
kart
##jera
Innsbruck
Farbe
ane
schedule
##sect
Danske
Sarmiento
##luence
risk
##plication
##uchy
policy
##seur
Gervais
Objects
calls
Agora
Fils
Stary
##culture
Energie
athletic
##esca
Ligi
followers
Televisa
##llé
##nzia
Huber
##saint
##tré
Courage
voz
tourist
Ille
##lnu
Albatros
##fait
innovation
##portivo
Natura
programs
##wimmer
Thérèse
Symbol
cards
##wiec
Grégoire
##rries
Present
##langer
##selt
livre
##otica
Histoire
Perón
Jameson
##ievi
Mongolia
photography
Boyer
##nensis
Cicero
edu
##czy
loved
Antti
##resta
Deportes
meat
##ramm
Mecklenburg
##clei
independent
Freire
##arang
Kalmar
##hely
parts
tramway
patent
Senhora
##plete
instant
Staten
Wehrmacht
##valier
##stus
methods
passive
Houten
Ferdinando
Ghetto
ois
Details
contrast
Anthem
Evidence
issue
ese
clients
exactly
##smas
freedom
Position
Dopo
codi
Brunner
injection
##nò
networks
Medio
##peda
Futebol
##ptes
##pali
configuration
traditional
Agriculture
pine
##adt
##rore
programming
friendly
Session
mill
Druck
fight
wants
trophy
sentence
Gard
1990s
encore
Biological
##tuta
Understanding
##genes
taste
Amerikan
László
Dels
often
##resa
##atul
referee
Kark
Marka
##uint
##eurs
mening
##forced
République
bowl
##diger
Espírito
Nieuw
Agung
stadium
Settlement
Prag
Reinhardt
##quista
Magister
Republican
##peche
Pitchfork
##latus
Sibelius
ISBN
basso
Agostino
##ldean
potential
Fourier
##olare
##tny
Parque
Mário
##efeld
##plici
Jozef
Junta
##nnar
scored
orientalis
##naires
##zend
##ción
Fabricius
alpine
##afat
grans
Syrie
##nire
bona
centre
sich
Structure
##àl
iki
##ights
nota
tato
finally
##ós
specified
rosa
##ukt
maso
kingdom
##tiques
chica
diel
wis
alam
attention
Wilton
seni
ordered
elle
##icion
##jaan
##wej
##iej
oro
scope
##itum
medias
rebel
##neva
lagu
##ferred
##gium
##weer
burning
hini
happens
##nota
sides
laga
bagi
giving
Ceci
##sere
nato
##perk
##ggen
prese
Illusion
##reuil
##tiv
Gerrit
Monarchy
Rooms
Standards
Xinjiang
##imia
##plicit
Siya
##ckte
CNRS
Mapa
Kanal
Odeon
Prensa
Brazzaville
tried
Facility
almost
##sade
detection
corte
##ised
Animated
##steria
##ruption
##nost
Kampf
Gender
Clubs
Beier
##ices
commission
##osz
document
split
Jussi
##leben
Taip
##stik
Adolph
##idar
Streit
Cando
Benth
##vement
Ethiopian
##nero
listening
Historic
##anju
Antioquia
Abruzzo
artists
Students
##chall
Plana
spread
Selv
printing
Engagement
parti
Protected
##cornis
Wilderness
premi
##dko
Esso
##unod
Wagen
##limen
Mikko
##rler
##wort
Organisation
Armee
##veau
##eeka
##zione
landscape
watching
covered
Estado
bone
##bios
##agt
2548
Nicolae
##folia
##rédit
##oek
##lition
Cécile
Nuit
Esperanza
##cultural
##wce
marine
##udes
Margherita
Deutscher
Joaquim
Victorian
Places
Else
couche
Hedwig
##loos
##eito
Martí
revolution
##tures
Chancellor
AHL
##ntas
Seis
##haber
Kako
##pils
above
earn
##schen
##guda
##uida
calendar
Portuguesa
##jona
Secondary
presentation
contemporary
##uvel
Treasury
##ahun
##áce
##leute
Mosca
conversion
##ident
curve
##dbe
processing
Revista
external
developers
brak
##ulate
aile
holy
register
consumer
permission
Mulder
talking
##uvert
##vedo
##erate
##vento
hide
oog
Description
Programming
##keun
Blick
Krupp
##rrega
KZ
created
##bách
##titut
##ksu
writing
Salta
continued
IUPAC
Barcelone
##nted
##yada
architects
##ipes
Karlovy
nyt
valg
##íl
##ucus
##cret
Collette
##ples
##jke
pare
##tzen
##pfer
IRAS
##llum
Faculty
##boll
Konstanz
Kader
##umont
Vieux
Musik
XXII
##pterus
Elva
##rants
Mesto
Melaka
Cooperation
##aglia
Vélez
Funeral
##zdu
cappella
Lage
Sartre
##eita
##ulata
##pée
county
##egos
##ptus
##zeka
##pierre
##ische
Magno
António
Meine
##llidae
Józef
livres
Afrikaans
Grazie
##sior
Academie
##walde
eno
##hiza
tackle
Stara
##cimo
##fana
allows
Grêmio
bumi
helicopter
Perú
##stos
Ficus
tarp
episode
grounds
trains
##ané
##ervo
gull
##tott
##rrak
##gún
##legen
eram
looking
outdoor
loin
tako
roller
prevent
romano
morto
Yunnan
label
##tido
hra
lez
khas
suis
mji
##inek
ler
says
##tans
##cí
más
begin
fece
saa
levy
pats
romani
poi
cabe
##cii
jej
eau
trying
alter
##sans
kimi
mort
central
dwa
union
##inck
##bena
##òc
##luna
Goch
##pii
lle
quite
##ndum
##odet
##nii
voies
mois
##unud
##anten
zur
lema
fishing
arma
##pted
gud
plain
##loot
##staa
anchor
Selo
ovat
happened
aren
sensitive
actually
minor
##skop
##nene
##zzano
Atene
##utama
Leão
##venta
##tuse
2556
##sheim
Islamic
##jata
##gby
Honour
##ziano
##mmat
Edda
##êne
Ulf
##hede
lease
barri
##iski
Medieval
##txe
##bacher
##perator
Ermita
Maire
##phila
Tipo
Stjepan
sections
families
##making
flora
Academia
##ásico
foran
##gaan
##rieg
Jewish
##kinto
acre
Motte
surgery
Publishers
2551
floating
Henryk
Dla
culture
Preto
dating
##mpen
##aea
Fontainebleau
Sacra
senior
Renata
critical
Astrophysical
romance
##lando
polk
##nsan
##nega
Tradition
##ivne
##viat
Kaufmann
##mise
Herren
radical
##ése
worst
lies
guest
##arak
wanted
Zona
Botanical
Leur
zou
##reven
Deadly
Named
##sein
Province
Americano
Intro
##mento
##chberg
female
Senado
Sanskrit
Maio
Transformation
Resistance
arts
continue
pret
Odense
##opio
images
lifestyle
##ctiva
Jérôme
##yakan
lance
##juna
prize
##going
Domínguez
resp
qualified
Experiment
Andreu
##grada
shared
mountain
experience
salary
Nanjing
Simón
Seneca
##glar
##rdt
##hical
Kirke
Hernán
marked
simply
groups
##izes
rings
Following
##utas
##rria
##klar
Flesh
##ferma
##tér
Estrella
Branco
Meaning
Jochen
##vaux
##ured
Depression
leading
Playhouse
comedy
##hanan
Canto
Athletics
Eleonora
written
Fragment
Cardinal
##mitted
##ulance
Passage
footage
##irao
Viena
##nzas
##dahan
##ermann
scheme
##jaka
Mayr
Asya
Când
##ints
##estad
Bahasa
##rology
##folium
Velika
##mannschaft
Gotha
dominant
Romagna
##lione
##dores
##echu
Hegel
Haarlem
##edett
Directors
Zij
Supplement
##bni
##keer
Politik
Nossa
##zena
Writer
generic
Similar
Guadalcanal
tender
##kool
##rée
Identification
linked
Acacia
commun
donat
Verband
primary
svi
isto
Shows
waste
activated
indoor
Antena
##níu
academy
provided
cycle
intera
##anje
signature
##ptica
tubo
Built
capacity
##yny
copyright
Cardinale
##puls
taking
protocol
##pense
##inta
Stellen
##BSD
Sgt
aura
improve
##ckpit
films
moved
playing
Preis
paral
##ajan
##tint
Approach
Westen
stat
linear
acto
##bolism
vulgaris
Panthers
##gkat
pars
teeth
Spiel
##elas
Klassen
##gais
Orbis
##rere
##lém
##fels
Erfurt
Alessandria
TOKYO
individual
started
false
Quartet
militaire
nose
gras
Haut
##teris
Lucía
Languedoc
Broncos
Monsieur
musique
Waldemar
##nges
##hylla
##cnica
##ingia
Majlis
Kreis
Norsk
Pavia
legs
rode
##minas
spille
eus
Egon
##erno
##rsus
Andalucía
ECW
##énie
Praga
Flavius
Mantova
AllMusic
##istance
Sebastiano
Dessa
##kere
##tarian
Trondheim
sous
raio
Mérida
##gik
Oriente
Carrillo
##fallen
Justo
##nzio
motors
Geoffroy
jure
Brasileiro
salas
##chaft
goalkeeper
Rimini
##antes
Valparaíso
##ologique
Oper
##azioni
##ligi
instead
##guila
##ária
Óscar
##szt
sqrt
deportivo
valdes
marca
separa
pasi
##vog
rade
sini
kell
corner
luni
grad
als
powers
zile
zang
formula
sana
##daan
##katu
UDP
##szi
doit
##èp
aku
sized
##quiry
todo
opportunity
thus
beau
orders
ont
sisi
inner
polis
dili
natur
wer
starter
tumor
detail
ait
##cih
noted
ega
deja
##tean
kana
develop
##messa
##cento
##cja
recorde
koko
##cted
bind
sert
##sait
##usko
notice
none
##noj
brought
signed
##mte
mera
##esten
Autonomous
Wiesbaden
##ologia
government
efficiency
siden
Tages
variable
##mete
calling
Georgian
2547
##kopf
SNCF
##uses
2545
Cremona
##rapher
Clerk
Henrietta
##quilibrium
Stahl
##isit
##gical
Soledad
Sistema
Sante
Gestapo
natale
##inum
Prentice
Altos
mining
Politics
##rooms
strength
##iological
foreign
Quran
Esprit
Cherbourg
porter
Nursing
Outre
Publications
events
##ences
##llant
##biology
##fond
##vial
Rasmus
winds
During
##piel
##dili
getting
craft
pictures
##kinen
##unce
Beginning
##cich
tuto
##ciar
dini
molecular
meaning
couples
##melt
Frontera
Polish
##née
##voll
Jaan
Kini
FAQ
##dni
rather
standing
##isie
disorder
languages
##valt
Kode
##bami
beam
ratings
outstanding
indica
##mines
include
TOUR
##kimi
##eves
Valea
##olina
Ramón
Larva
Mundu
##tni
tempo
Reptile
##quality
Greece
2559
marriage
Maggiore
injury
##sses
##utica
banjo
symbol
Padre
sight
nationale
Makes
miniserie
Dorf
Mohr
Gospel
Gilman
##ited
##gged
Reprise
##onato
failure
##banen
##ronica
Stelle
##culum
##werf
Himmel
##matu
Nachrichten
tons
momentum
functional
##pung
##byli
Turnier
Formen
OEA
swimming
certain
Bonnet
##plosive
##endorf
##atica
Cluj
##iata
##meras
Salto
##gonia
##dication
Evolutionary
Avenida
Wever
##portiva
Alfons
formand
Colegio
mental
assembly
nasa
Dumont
connected
reca
zee
disease
Kairo
stable
##atio
numbers
excellent
1980s
##ekben
portrait
widow
movies
shows
##ciones
Guangdong
Recorded
response
squad
Units
Agreement
frequency
noen
Norden
org
##ikko
##tely
##iones
equipment
revenue
colors
##fty
##ages
dann
##pred
##coding
Persson
began
string
##uting
mile
##piler
Democracy
Meister
Labour
##rón
Zwar
Bamberg
##ivali
##united
identity
##terna
##àla
bacteria
epic
##risten
##giano
Giordano
Montfort
acide
Finally
students
Calvo
Infrared
Rabbi
##mpf
##guito
Jón
Rosaceae
Rothman
##chnik
##gaster
Rimu
##ioca
##acle
##shafen
##ége
solen
##itza
##ikat
lower
##dotti
2539
##ewing
##iara
operator
cour
##gidae
##karang
vitro
##rvik
calcio
##onario
##ugat
construct
Antarctic
Sarthe
Centrale
Bintang
##lied
Junkers
Père
lingua
##lony
##ntation
##lno
##ônia
##dami
guru
cantata
march
##ów
alias
competition
##teran
Imre
Christiania
Ethnologue
##kalan
punct
##tief
Michoacán
Pieces
##zane
Asociación
Liberal
Ukrainian
Technik
##uert
amount
Landes
Sede
##gente
##pten
annum
##lesia
Bulldogs
Alpen
overall
##lija
Valdemar
Lagrange
Ouro
titles
promise
slopes
conca
Més
##borgs
Rapport
evening
tio
##jeto
ona
benn
SMK
amour
niz
##èi
tona
tedy
posse
cars
benefit
edat
clothing
##hja
tests
kuin
pide
reviews
kes
bija
finished
fino
thermal
sick
linn
yr
##uita
cancelled
feu
dewa
strange
vaga
adat
heb
dela
##ijd
pase
matin
##ciso
##puu
Vom
though
straight
Missa
cure
Maii
lod
elmi
##zej
ỵ
desert
handle
coda
##smen
##aring
sels
ene
sett
##tuu
spirit
tsy
jungle
##vuk
##iau
##cies
glas
duen
més
dica
daughter
enten
accesso
hof
##ogs
soy
maxima
capa
ends
pian
element
quant
##pliance
assists
Platz
century
gardens
##ncies
Incorporated
##tels
Handbook
economic
markets
liner
##gido
##zve
Osijek
##klos
##yku
##arono
##liard
tala
pani
stel
Tartu
elegans
Cinco
Pater
plana
##atura
anniversary
##nert
##ischer
##huda
##mida
ìa
Edat
##jati
Stargate
Senator
Funde
##dberg
Fujian
##sheva
claim
##platz
Census
##dorff
places
Ouest
fluid
fonda
director
Kunst
components
Profesional
Administrative
##vek
UNAM
corre
Reservoir
Principal
oss
##tims
##rical
alive
styles
##nym
Suprema
distance
##senza
operating
Cockerell
territory
trouble
investment
##opes
##fortable
##liers
anca
##osing
##zioni
aviat
##ivas
Teruel
##lista
fault
##pce
sequence
Ook
##erly
horse
##orse
##usia
##vét
Congressional
Clément
Bitte
##baru
Bundan
confused
crisis
##verein
journey
##umit
##verdi
##varu
##lusi
BSD
Medicinal
##lón
monitoring
felt
Hautes
##layan
##euil
##pinus
compare
Regensburg
Frankfurter
##cutor
Destruction
knew
Bengali
dates
##úne
Modell
Junge
Opening
Trees
Waffen
Memoirs
Nietzsche
Malayalam
##oide
##herent
##ifs
##rily
Motown
##jimo
Kleiner
Historical
girlfriend
Writers
Hungarian
Forgotten
Valerio
##aires
Winkler
Postal
Democratic
Cáceres
##iung
##lmen
##leme
##jale
##ugen
lire
##diko
##necht
##finals
##gico
##ptur
##erbach
kans
##nction
usage
impact
CRC
##lido
weapon
##inya
Oeste
Revolutionary
Norges
##icias
langt
Lorca
husband
Júnior
##iston
ning
Marconi
Guanajuato
##ticu
situation
##gden
Actress
##ikas
##ussen
Bartolomeo
##heater
continu
changes
entertainment
author
Invasion
Música
##gonal
##wili
allowed
##corre
added
ott
universe
##ordinator
Série
##terie
##edde
birth
codes
##ymus
Brigadier
verte
tout
selling
hier
##laisia
##iyat
either
further
related
Axis
##poda
lord
object
approved
##tives
announced
aller
loose
##yau
##okon
Elmer
courage
##anik
Nigerian
saint
considered
Republica
nye
##lamak
usually
##lgan
Molecular
forma
Languages
Problems
##iges
##rador
##arach
Dva
Gmelin
judge
Chiefs
Stadt
##kaan
controls
Riders
Doppel
Molière
rouge
Groupe
Théodore
Tercera
##rbus
Bahari
Weser
Conservatoire
rankings
Kaap
nera
##urité
##lesi
##qda
Ríos
##weld
Pasir
Krim
née
Maddalena
##gede
##rande
##eois
##zug
Armenian
Angoulême
##èche
Afrika
##culatus
species
sensu
Jaén
Debussy
##baran
##backer
Esperanto
regulation
singles
membrane
##osant
##ichen
##frage
##ický
Lied
IFK
technique
Ferrand
##tees
##nern
viri
Austro
Cichlidae
##véd
##áez
##ári
Mammal
##domo
fuel
##uado
##major
Terceira
supplied
behavior
Acta
Formation
nobili
##ecka
##skas
##curio
Interscience
helps
Poetry
heer
handball
viss
##mella
mesa
##heen
sita
##pija
chosen
luce
airs
##adas
##hende
renn
noto
modell
dree
lait
beyond
doctors
##dno
stran
fost
tenue
translation
când
Gundam
actual
metric
##ophilus
##âne
elf
sada
siti
oca
lama
##siste
kitchen
##given
trait
dur
drame
cosa
ridge
himself
toen
##jno
##baan
##ologue
returns
hinn
kobiet
auf
laid
anche
survival
vous
Gdy
dogs
ark
##minato
zich
##gaus
uang
grade
wie
##odio
peli
##raria
avoid
filo
##zach
malo
articles
itt
cada
dangerous
losing
toch
rok
##lange
Asiatic
vigor
##byen
resto
ander
gigante
parking
cubic
##tration
tropical
##eht
Krieger
Urbano
##mpes
baseball
ida
grass
Rijeka
##inak
Gutenberg
Srpska
alat
##weit
Brits
utility
hafi
Tampere
anni
##kende
##emmin
##caire
Poleg
Annual
Elevation
##ntial
Outstanding
##leich
##acea
##jalo
##ières
invisible
Já
editing
##rijk
Chamberlin
Saison
##ziu
period
progress
Philosophy
##áz
anno
Hacienda
else
kN
##jón
##fully
prior
president
steps
##oken
interview
Largo
Plateau
Cristóbal
##strata
rocks
##bahn
##tuva
##illas
##undu
wrote
Hallan
##gnant
Integration
##boards
Banjar
Bundeswehr
##jti
Abt
acids
shares
Woodstock
##wasser
tribal
##nating
activities
climbing
highest
Resurrection
eggs
##carpus
##jev
bands
##ranta
##llius
Bentham
bande
##zite
##zionali
litt
Copeland
Jukka
Superliga
kola
similar
##dactylus
##ulier
##aggi
Unlike
Hasta
##dades
Coastal
##tales
##jerne
Bischof
Éric
Roots
##nificent
temple
temps
##tations
##mies
##miglia
Gaelic
Namur
Beata
##uano
##rence
thousand
Badajoz
Ensemble
##wyth
basse
##fies
##atak
amar
Heide
##deutsche
##irne
insula
static
Jornal
##valiere
Israeli
Treffer
Mayotte
##ophila
Svenska
##ogica
##ácio
imperial
Folge
clearly
##inkin
muscle
##boken
Bissau
##jada
##opsis
##passe
UCB
##ramento
leadership
##ytas
backing
##presi
##osia
##funn
medal
liberal
##citing
Remixes
Issues
Amnesty
secure
imel
evil
commercial
##inius
##thesis
finance
Generals
advisor
problems
accident
##cé
linea
##biti
bigger
##mentu
##mates
platt
Leary
publish
##hilic
Dialog
quiet
isam
evolution
url
reaction
voda
connecting
##gator
##fficial
speech
explore
##gation
themes
##veur
Inspector
replaced
##dzia
premiere
##strate
##jado
##museum
##pired
keyboards
mange
##dering
qualify
electrical
fatal
Stato
worth
##olver
##renz
founder
threat
previous
ehe
Estes
##nych
favorite
##vén
session
difficult
##cáu
##ament
##vía
##jaran
##ixen
grammar
beginning
##ression
journal
##ntang
##aben
Caetano
##ously
##mondo
bela
Allium
##parti
whether
##rbar
Goiás
Reiter
##laki
successful
faith
seasons
##spel
cinci
##icz
Sergeant
Thus
napr
Sonate
##siv
Drosophila
Savoia
Atlantique
##daki
Premio
Andrzej
##uré
pathway
##naam
Foi
##itsi
##rmed
Guardia
##demann
extended
scheduled
##ophora
Literature
Vosges
approach
Neckar
Smiths
Jeunesse
Distrito
belong
Dendrobium
##azen
##mentar
##nicu
Cádiz
##tanan
eight
##heritance
##jant
Goebbels
##lmes
pris
##arder
##ranje
Sérgio
Vytautas
taxon
##dgren
##més
fiction
##uring
##iade
##ilea
Utara
sela
##jene
Gregorius
##ellus
Cordillera
Bukid
##ptis
Quatre
Yaoundé
Kinos
Allmusic
República
genome
Kaunas
Rosas
##ões
##ested
Saussure
##anias
Wicked
Medellín
movement
Rubus
Minden
Concepción
Raden
Paar
Urbino
Trieste
Bataille
Dalí
Industrie
Bahía
Juárez
throne
Dunia
##vedere
##cudo
##jere
Euskal
##halen
experimental
evidence
Those
integra
Jakov
##witsch
##tering
##erade
Varese
Tomás
Unidos
##ád
Killers
pastor
Huerta
##iesen
studies
difference
Snooker
auge
Especial
Marín
Ruggiero
##zame
seun
percent
juge
plis
lamela
marin
espanyol
ista
sura
nous
neem
rele
humana
served
##took
mide
##gadh
shoulder
sva
kol
berri
zit
##kban
dous
##orax
variety
vek
##ihin
kez
canta
regular
##tuna
proximity
##sika
fía
##mido
anu
luz
turns
ruler
aber
##riate
pago
akar
pride
toit
kira
##tyy
##hacht
tez
princes
bombs
##ána
globe
##ecen
iuw
landmark
##selen
##pista
stores
elu
eni
##jni
##ttet
gav
destination
Unito
probe
delayed
tinha
meter
##fying
ika
tola
donna
nuit
mission
taman
maka
##vde
poner
WDR
recommended
compatible
poti
rare
Goldene
upper
##used
reais
##nere
##owment
##rska
Nuovo
magazine
##ôle
##ierna
##graphia
Sinnott
BirdLife
intelligence
Egyptian
Frauen
Kassel
Creu
ideal
Bayreuth
INSEE
##reste
##uary
##posta
Biller
##metro
practice
rotation
##sdorf
##mpre
Provincial
operation
questions
Aeronautical
units
Practical
##kry
hurricane
##ilitat
##phyllum
##letto
##umption
Durante
optional
labor
##klad
Reflections
Altri
Scouts
##znik
putting
##úd
attempt
##eall
##otions
##werks
##íne
##ewicz
Ghose
compete
Basket
Pendant
globale
kilometers
Armed
##mbeli
##schule
Czechoslovakia
violence
commune
##lkan
##writing
Monmouth
##anum
##ulte
##nding
Greifswald
##ipelago
changer
Marso
##cita
##ógica
Karls
##trale
##kampf
supports
likely
Tanto
##vidad
Futbol
sponsor
laps
peoples
2546
Kupa
##ziki
Ediciones
2544
##être
Holanda
Gymnasium
regional
##tiin
eleven
NSV
annual
Olomouc
Regionalliga
##uelt
Tokio
Quando
##rness
Aiken
##cave
planet
Halen
Fribourg
##zoni
##vão
##licy
Signore
Monastery
fleurs
Dialogue
Stavanger
albo
According
Pohl
##veo
##kseen
committed
Chemnitz
Verlag
Veliki
strategy
canal
frames
provide
##ivano
##rable
Vinter
Limerick
##smus
Studi
Editions
##reiche
##erance
##tija
##ová
taxa
Rocca
##arii
##sede
Cultura
##itten
Sharks
Facts
Colts
##ková
##ciation
Badminton
##faut
Karya
##ovas
copper
certified
inspire
laten
##gioni
Expansion
passed
companion
returned
ubi
##closed
ist
wins
runt
export
##quences
##achment
skull
lineo
maintenance
##ibil
professor
barrel
costs
##rare
lent
mixed
##nimo
portal
deux
Names
pointe
##vó
Agence
##posed
Dyma
faster
creation
latest
sensa
expensive
##finite
attached
directly
Thema
worker
signals
instruction
computers
##rili
##stup
additional
Aalborg
activity
##pressed
##ctica
Nordrhein
Natl
Perspective
currently
quickly
libre
##ceto
##dible
millions
walki
##mjet
##irom
##festa
##dagi
##inted
earned
Reale
##prav
##ctes
##venes
##iciency
chromosome
letters
types
exercise
Grafen
##takt
##noval
Principles
Camino
ley
##hista
Sèvres
Changing
coaching
##ientes
mystery
Violence
chant
boarding
attractive
nouveau
Badan
Léonard
academic
Araújo
##oké
##itaires
vind
##édée
Bulan
occidentalis
Veterinary
##felder
Musique
ville
##gné
##iné
##pendium
Qualifier
Railways
##vided
Escola
Cercle
Istituto
brings
Lleida
##zón
Lampung
gratis
eller
mest
arms
Devlet
Byl
Felip
Poola
##delen
Partido
Euphorbia
Geneviève
##vinu
Menteri
##lohe
marmo
interactive
Dominicana
##oyer
Châtillon
Niccolò
pieces
##ovni
historic
##quio
Lungsod
##vire
Académie
magister
##svar
##mando
Kazimierz
gris
Limburg
Polydor
##isis
Palencia
##ovina
##cendo
Potosí
Sulla
Antônio
##vés
Speyer
Accademia
Torneo
voli
Argento
##bten
degli
##sesti
Corrientes
Tunisie
##isela
##ienza
Anque
##nario
##nili
##ligt
ena
Freie
##ullit
##iju
cultural
gives
Venecia
##miento
##ssimo
##zili
Teluk
##sdag
##tiche
refere
grandi
fourth
IAU
OCLC
##kolla
##kelen
##wów
Calhoun
Lahti
Gesù
agua
named
Tekst
##skie
##qués
Judicial
Physik
##ronik
losses
##steries
##jalla
pese
Aphididae
communications
##ished
##odontidae
croce
lige
Hilfe
riba
##hmen
buques
aurie
erne
Mondiale
addition
futur
adres
rhan
##suite
enn
hata
stretch
spots
##quela
faces
##fante
kuna
immediately
aia
suport
oak
neue
caudal
##jde
bland
siet
##ggal
sech
daba
pollution
functions
anak
prepare
doba
held
ample
responsibility
##jans
##òl
##gje
recipient
interested
milion
nama
kura
rama
tivo
Ajo
vez
taon
vão
rood
aver
treatment
##hnung
conduct
seis
sve
##hden
##loads
esa
vast
pré
removed
##tatu
##lgare
kini
toll
visi
iga
##teto
Ritual
hjem
svo
corto
asti
eje
##sée
saan
tente
oriental
jaso
doce
##kci
explain
choix
sons
##zata
celebrity
socio
Planets
twenty
Arquitectura
Imperium
Altar
Bartolomé
##terns
##tavu
Pokal
##chse
solutions
therefore
chante
##renia
##đeni
Colonna
##nieks
larva
spent
##lhas
Boiss
##fida
stella
soil
##hrax
antic
Helge
Directorate
effort
civili
##turing
Tiempo
Wuppertal
Weiler
Parliament
reports
##union
##werke
meer
Illes
Universitas
Swedish
##vart
##lkie
##rafo
Orthodox
##frau
Villers
temperature
hotels
Testament
Garonne
Westermann
tall
fare
##ovec
brach
Algebra
crew
depth
##forme
##istent
Essay
commonly
##dios
Ingeborg
subject
saka
ASV
##nnas
##ividad
Raad
museum
installation
##esche
Arezzo
##itant
##ternal
Editors
##kond
##kirch
##auta
##verk
environment
dair
Eine
##enbach
Schutz
civil
Militare
##icular
manufacturers
manufacturer
1960s
Berthold
prayer
paying
nights
offers
protected
Composition
Poaceae
Valenciana
##tuor
Iraqi
errors
##odidae
##eins
haven
Presidente
assets
criminal
Finale
syne
Día
##tanen
Pál
##americana
purple
particular
##marker
completed
##flies
Bayerische
##unki
##nière
Pallas
Danzig
Known
stile
Introduction
Miklós
Kirkwood
##klis
##ilina
##xies
Feuer
##sitter
Esteve
Honorary
##arar
keeps
Peoples
##teur
separate
Gottes
speakers
##ildi
##ért
moll
rete
rolling
Nieuwe
##zien
##wca
##stir
##olusi
lunar
Ehe
quae
##tlen
Duomo
##giorno
Mound
soldier
drives
settlement
##ringer
Vallée
##igned
Bahá
Pekka
differential
##ulatus
society
##orde
##emos
##vej
Cretaceous
illegal
ej
Advances
brat
##ielle
##charts
##meester
##urgo
##owed
gry
fonts
##nách
freshwater
Militar
Diseases
masu
Viewfinder
##coles
instar
integrated
vender
##contra
flexible
##material
##stev
leven
nomi
dies
##ebes
mere
Summary
pois
crucial
emergency
Instrumental
magnetic
##cê
Baie
weeks
1970s
tipo
##sega
changing
density
##manto
adding
although
description
Lists
Etter
killed
##irea
analysis
termina
##mitting
##brane
##langt
Colón
associate
animals
customs
einst
seeing
collect
royale
##ksta
supporters
artwork
##tém
Questions
##regation
starting
misi
issues
conference
##echt
dare
Livre
unu
##phobic
radiation
Peckham
opening
effective
brit
collector
versus
starts
priority
joint
Eugenia
delo
bachelor
guardia
##imber
nur
Population
##prese
asta
agar
therapy
Xina
##ocarpus
##laire
clothes
Casas
completely
##chemical
Density
##deling
Alten
prevention
depression
former
##atik
Ratu
Britten
##teil
Jugend
specialist
essi
Juraj
Racine
Vitória
##esino
Duchess
isole
walls
Migration
##stab
Fauna
Picardie
##raven
Nederland
Cours
##yik
##izat
##ymas
##gels
combination
##hej
bera
##ufe
##jaar
##matan
Poza
Situation
##mated
Irland
##inje
Kanton
Bilder
##piti
Diptera
Rincón
##ccanica
carne
routes
Reforma
##ève
Forel
##rkas
Italo
deposits
Mathematical
##atile
ability
Burroughs
asked
gave
Agostini
proposed
valuable
truly
##szak
dose
##anii
Changes
Viscount
lois
ikke
##njen
##ceed
Systema
##cié
##flug
Americans
Moyen
##falls
##áil
##rijos
knowledge
##latina
##catus
##nggo
Utama
Donau
##ème
secular
##ritti
Sforza
##unum
Sied
consul
##enek
##chule
Conseil
Kabupaten
Tengah
##isor
##ueil
##sches
forms
##perate
##citus
desa
##piya
##stico
##cias
Sebastião
pelo
performed
Atas
##tenia
##ktion
##udur
##egt
courts
Cyprinidae
Corazón
Alianza
dass
Léger
##ioso
Orientale
##ciformes
Ashes
Orsini
Gijón
Reykjavík
##sborg
Bundestag
mogu
Distinguished
##veres
##gón
sits
##neria
Guards
##ctical
Clausura
Uzun
membership
Mujeres
Primeiro
Agosto
Corea
##iegel
Baix
Iván
##onate
##uell
##tuar
Carioca
Bester
##ifera
##qet
Germán
##ruces
battles
established
selection
Riemann
Ceará
possibly
##cussion
entire
Schoenberg
drawn
Králové
containing
##ópolis
fields
PSOE
Volley
Comune
##enomena
##isana
Estero
##vador
##arium
nearby
##sille
fundamental
lots
##endt
##chidae
##nologia
Erebidae
railway
filming
##íti
Danas
##hten
suspect
Dachau
Cornelis
properly
osti
mund
Kloster
serves
engines
##istei
scorer
brug
noko
chez
méi
kuras
fuit
Católica
##iert
Banská
Bystrica
##icaz
terror
arrive
lika
colore
mise
grown
dhe
lago
located
##cej
njen
sora
duel
muto
##linge
yer
##jnen
vise
##ého
consider
naman
iar
sami
jau
yw
parks
asking
gitar
gade
ordet
charges
datu
ile
vasi
novou
advice
benne
dolce
fé
##valy
tome
eski
amor
##vidu
vodi
sudden
##zdo
taip
##verses
ampy
juna
##jsk
##eker
##pja
##tait
koma
vars
##loog
amis
oor
ells
recording
tena
##èt
##hý
tanto
volcanic
nuna
weak
negeri
belleza
sends
nata
boj
hanc
##nels
manufacturing
kept
aun
##ctie
##hnen
savo
waters
alia
##dte
Õ
ebet
##jeva
sider
##tropical
Perspectives
crime
##iento
Planeta
mechanism
intelligent
Ingles
anima
Tibor
vehicle
##undsen
##binder
Eberhard
##eberg
Albumi
Schatten
till
grant
##ranu
##anea
Tribute
laut
##iria
facts
##nkirchen
bringing
closer
seem
newspaper
sources
##vous
Vater
Piedra
##otas
Nowe
##astu
##issant
##uario
Museu
Ludvig
observer
Cavalry
controlled
##érique
tours
mixing
dedicated
castle
Verso
distribution
wildlife
##tych
Territories
Bonner
anyone
##rrado
##technik
Nuova
fully
##logia
unknown
##ánt
Traditional
needed
Editorial
##maq
department
projects
Alternate
##ficient
entered
Deportiva
Combined
Catalogue
Statistics
##nsul
Bouchet
##viser
##bergia
entrepreneur
affirme
uga
suku
##chnique
Lugar
##emes
Sobre
##zate
Collections
Inventory
Prediction
spectrum
smrt
Results
Documentary
##vom
partnership
##kraft
##dienst
##ceg
Fabaceae
##dique
reporter
##piller
##pios
Ferns
Parco
brief
huge
heir
Agama
##servation
fala
sciences
jeux
##schlag
##dato
Quarterly
sitting
integration
Juden
libraries
cabinet
Nikolaj
occasion
struggle
worldwide
manner
celebrate
##mière
Visions
##uele
Ryszard
Govern
##poru
##ciato
##ologie
Suci
Cemetery
Cappella
##verband
Jeho
Massacre
##titled
##welfth
##èges
Outra
vocalist
Gábor
farmer
##ological
timp
##ctum
Fondation
GND
##rimage
##neous
Existen
##isation
Longchamp
childhood
##ítva
##tieri
terre
abuse
##estes
albums
##ismus
Indians
Acting
Wittenberg
##uju
##kako
##tingen
superior
blad
##isted
Roussillon
viridis
##onado
rising
Mauer
##gregation
Secondo
chemistry
Banja
##posa
Martinus
minime
favor
meant
drawing
reserva
##bild
fragment
factors
Juin
##brities
define
Idee
Geography
mainstream
pria
stands
souvenir
Soccerway
##nabis
##eranza
keen
##amente
gets
Libro
Each
##cting
memories
fà
collections
##cesi
##ularis
provider
alta
worked
produce
streak
adult
disabled
several
##messen
documents
appel
reso
reflect
klip
Knopf
##dmark
onto
hosts
empty
according
##tyg
prof
hva
audience
norma
archive
opened
Acest
aval
continental
extent
birds
existing
Supremo
records
dire
coal
fever
stav
silence
##gnato
inde
curs
grado
rei
permanent
copie
schema
##graphs
curso
mutual
agreement
exclusive
vapor
intern
consumers
Numm
##kust
##luse
dira
Sites
volk
NRK
knows
saying
fellow
##stica
##eista
##valent
enemy
##oned
leve
Chorus
extensions
easily
seconds
instance
modeli
generator
##icie
Boote
rape
reduced
##ányi
##sation
useful
smaller
CDs
Nisan
Libri
##kter
hava
benefits
challenges
bulk
triangle
##dyo
Zato
##amus
Rohde
japonica
##stum
##jeru
##ladu
##drial
dros
Oise
laude
##itet
##jini
dicha
##tonu
##deral
Conflict
##urant
merci
inspired
##ezie
PRL
##vido
##ably
##zzini
Belles
##posing
##tient
ancho
mutation
##rgers
Stiftung
contribution
medicine
Samen
achieved
checklist
Falle
Slag
##leja
humor
##ckor
Anhalt
Colonia
shelter
##phoridae
iza
possession
Sykes
communis
CoA
queue
##onista
##andia
comics
##tinent
workers
##romia
##etek
Heikki
suspended
Astronom
##jina
Anny
pont
jours
##lensis
rue
##èze
operations
Astronomy
commerce
##akei
Baixa
##maan
##curs
competitive
##licht
Ficha
##nological
fraction
defence
fue
##meister
secreto
ojos
stolen
##yib
##tanti
Semana
Dois
##ritu
Polski
##presa
Deputy
vare
juni
appear
Aubin
breaking
scoring
Figure
##mbling
Oggi
##lern
##ukat
##hnya
Noche
##enzen
Seminary
##teed
Foram
Pangeran
raja
##stici
initial
##hodu
Gyula
##ndole
##llata
Imperio
Insecta
supérieure
##toire
shown
##fahrt
Vlaanderen
##rchie
population
##hyllum
Episcopal
Article
Girolamo
général
guerre
USSR
engagement
Élisabeth
Enfant
Cameroun
Liter
Americana
Staat
church
##atore
Programm
##erata
Passeriformes
##dden
Wola
##vais
##sides
##letes
opere
##ranja
##jle
Bezirk
Roskilde
Symphonie
strict
##odni
Conservatory
##lska
Méndez
afin
formann
##skap
Duchy
Rennen
##polski
Bárbara
Florencia
comarca
##nibus
##guas
##quín
##ína
Grupp
concern
Melchior
Boyko
Karte
##hment
##dande
##sken
Tolosa
País
Cidade
##chilik
bianco
Allgemeine
##jela
##arios
presented
##rinus
Cirebon
Republik
transaction
Frederico
Apertura
##denis
##teta
Suomen
Hymenoptera
fuga
australis
reliable
Halk
Nederlandse
Quercus
##tawy
##metre
published
Weapons
Eerste
Nación
Tóth
##ooni
Lors
Salvia
Bulgarian
Veliko
vertical
Mónica
Volleyball
Foix
##ltura
##gales
arme
Australasian
retired
seeking
helped
familiar
medley
##missar
ceremony
##eisen
##daceae
undang
Undertaker
involves
zela
##ledd
synthesizer
KDE
Cerca
connections
Secretary
naval
##zzato
##passing
##skij
dane
##zego
alder
brothers
cambia
fod
lune
fonte
striker
##adores
rijk
decision
benar
downtown
##entos
##visión
##élio
Ministère
##americano
Francie
Namun
generate
##cesis
##kenti
Rusi
demanded
##ionar
##iline
fq
fitted
locale
loro
Herbst
kala
sait
luar
eds
kora
sending
gros
yari
foto
karar
teme
##garri
iad
##èh
savanna
batu
##uiu
89800
chce
##pò
partners
foc
ages
kino
##hée
sword
deem
kup
gaan
diocese
gusto
elev
persona
amigo
##pisu
juo
clara
día
tawo
bile
##hrig
tombe
##ód
iam
tud
##tats
fest
legge
##fii
tage
být
##áka
##ruar
Centrum
evi
uit
balas
pluse
nell
vento
##jmu
anch
fait
##rigen
##iaan
faz
##houses
troops
siku
giovani
aby
posted
resa
Freshwater
pkt
servi
ssp
pura
##ilib
chest
nov
juu
##wys
motto
firme
proof
##lotes
lager
sept
Noch
elan
##icas
hiri
sest
costume
architecture
##aborative
efficient
mezzo
##arrow
##zeu
ego
##unct
Republika
##nologie
Siracusa
corpus
Hippolyte
##dalis
Narva
Balthasar
tourism
tribu
Belgrad
Katarzyna
Rather
opinion
legal
##itors
moral
extinction
blocks
##laceae
##enland
doors
##jse
matters
equity
council
##ifen
##course
##ffers
Maan
##sache
insurance
Mainstream
Elementary
Physiology
minister
rivers
blok
combined
instrument
versions
atmosphere
##valieri
##kses
stayed
nigra
fungi
##caria
whatever
teh
##rdas
##medio
Krone
##ndak
##jects
##ragen
probably
grades
placed
##nalis
climb
##ungen
Systematic
thirteen
marina
baron
piel
Attorney
designs
##gesellschaft
##hlich
##cego
##forte
##viata
agencies
##uvre
gaya
##imos
lyrics
##richten
Basis
diario
dios
cities
across
Though
Commune
grain
##ficit
##versari
##fique
##rème
##rtes
africana
Charentes
parasit
Moskova
##ján
Panchayat
##èr
understanding
##shment
Otro
Italiane
Egli
##czka
Naam
##áid
##sende
Geology
personality
##sero
Sinfonia
##demia
binding
kandidat
talents
sectors
##petto
Endre
TKO
Feria
##missa
##niki
Reise
Corrèze
Instituts
Socialist
political
primarily
regions
awareness
wearing
contributions
##lerin
##makers
Headquarters
##ykke
doble
Dramatic
Diversity
##laat
##arten
##ób
Former
bila
studios
ferme
##onym
Election
Buddhist
isla
István
##lainen
Appeal
featuring
border
##tiary
flux
drugs
showed
average
##áve
##joni
##cados
##isir
havet
##eraz
Szczecin
applied
##musik
jury
Iglesia
resource
NWA
Janusz
introduce
##vies
kuru
##drar
instructions
##bustion
filled
Oude
Seconde
officer
##ingt
represent
shall
Siegen
Fotos
##marino
Paderborn
chemical
Neues
reserves
##zce
sonda
##zí
##mski
##alim
mula
##racht
Crustaceans
##ienda
##zerk
Oos
Recherche
##iado
replacement
##ezen
Ovo
##ejar
rescue
Werk
##jike
##tuti
##tzia
##zdy
##ceni
##justed
forman
Roubaix
technical
##raux
##grafi
tasks
resti
capita
##ncial
wir
##tyi
##sional
mère
modified
prices
##trice
commander
Representative
##toso
##unte
neither
viz
throw
removal
interne
##cía
enabled
fram
horror
damaged
signing
objective
upp
vele
##tuto
pola
##rije
##kset
registered
ballot
Tiefe
Audiences
##vée
##gida
##ónica
rebuilt
##lmos
eligible
##tku
telle
##laten
Rusia
pone
##radas
Putih
Cina
focal
installed
Unido
Brasileira
##uted
contains
##sista
##tecte
continuous
expansion
##gines
primi
##uido
weg
stops
esse
kad
dying
##ichte
##grado
##tician
passo
origin
##niek
improvements
opens
enhanced
migration
nearly
scientific
rapid
marking
pirates
businessman
##tography
##familia
censo
rast
##elek
##tted
aime
##habilitation
gener
Tribunal
projection
stabil
reached
standards
Papers
##usement
pape
petition
##nggu
##linen
##teet
usine
##íd
themselves
teaching
##communications
arv
Eles
daughters
##nkt
##rayal
halt
dice
quasi
sinn
Biography
retire
##nnon
stroke
scholarship
drug
sede
##styr
kama
##koli
##ongen
##ács
famille
keeping
##cinta
Prussia
##galan
domina
tale
##isfaction
Valence
##rany
Anthology
catalana
constant
occur
expression
tongue
##áin
motiv
welfare
##inaire
doma
mans
Struggle
Families
veteran
viewers
Abril
##myia
##stitute
##rania
Jedan
##ringe
##ients
learned
Related
secondary
Alben
##itative
auxiliar
Sotto
##welt
fini
##zeitung
supporting
##tania
pares
Jacobus
##arshi
Alexandru
Zwei
stopped
soleil
Superiore
tiers
##utor
Genet
Galaxies
Starting
petite
WCW
##nowski
Croatian
Uranus
religiosa
Maret
##chlag
##rody
particularly
ciel
Charente
##ète
cathédrale
##sienne
parce
Passau
offensive
Mexicana
##osas
##eky
favourite
Dordogne
Essai
Onkel
islands
Classification
Ethics
Goldwyn
Henta
##ruga
Islas
Antwerpen
previously
Breslau
##firma
Synopsis
officially
Kosova
##eiras
##sium
##parts
##satt
Unión
mucho
8108
##geren
##xada
Dresdner
Mto
##kjer
spiller
Jeg
selv
etter
Hvis
Norge
##ndom
largest
Therefore
##iated
bitter
Vizcaya
Afrique
Plessis
##itions
Dende
conditions
Treaty
Regia
Montagne
##inifera
##ébe
Tinggi
Teachers
##taria
piazza
Théâtre
Hemiptera
Apiaceae
Vierge
Palatinat
##stil
Curtiss
Guglielmo
##industrie
Aquitania
produced
##ropus
Hauts
##èse
Compagnie
##nations
##ezet
Pará
Todos
attacks
militaires
techniques
Ivar
##rophe
Beyaz
##cultura
Seminario
Genome
##astique
laws
##icidae
associated
immune
opéra
##rych
fascia
subsp
##itou
picked
drums
Salud
##inii
basal
Kunze
##pania
Kraftwerk
##alna
##jahan
##kunta
Isère
Emden
perte
Orde
Regiment
##ificia
##ailles
Constitution
##ânia
Leben
##inador
##chend
##zey
elements
##ogie
Asien
Fútbol
Kusini
##untary
vorte
roba
Municipality
Volunteer
challenged
##rben
##vár
missile
localiza
greater
##tée
##seda
Serbie
median
Een
pasti
##orium
Dienst
##lijst
Onze
FIBA
Cuvier
Karadeniz
##vce
##guerra
Polonia
roster
turc
##isme
Buddhism
desse
scenes
##undum
itself
depending
Comprehensive
Liceo
ciclo
awarded
##ditions
vaisseau
##icios
##rónica
passato
József
Vergine
increasing
industry
thriller
viven
Família
Ciencia
##okou
##nheim
##quía
##liwa
Punjabi
involved
##sigliere
##irkan
Infante
gero
##ceum
##mentale
perd
Luik
##lenia
##paar
##ksia
promoted
Carolus
sentiment
junction
##onali
Venise
rises
engaged
Wenzel
solve
Beginn
Ehren
Juara
Stood
nozze
Terrestrial
Annales
meio
castello
NCBI
Olímpico
##pididae
Cerambycidae
capensis
prosa
Brasile
Yugoslav
spotted
bola
breast
dorsal
mainly
becoming
patients
##ràcia
slov
broadcasting
##xido
##raken
respectively
Declaration
##poidea
Llwyd
carried
sometimes
##sblad
Cambrai
Chemie
##èl
##rantes
##oked
##nlar
##bía
visitors
##viste
planta
homosexual
championships
quarta
##ativo
või
worden
evento
cristiana
##elé
##kante
##rkt
Más
midfielder
Antonín
##tref
voor
medals
##garos
##stare
stones
neve
violation
clima
Nordeste
Dordrecht
##kowa
corpo
Universidade
##bauen
##emaa
artes
locomotives
##vivencia
##larga
commissions
kamera
estimate
maty
##itatu
##oond
getal
datt
daki
##pente
##gép
troca
dieci
polu
doare
oficial
weil
##cje
##loj
strain
taki
##waan
nagu
bizi
vile
daug
hja
paru
arrived
gant
tiga
vett
##sje
##ări
komma
iko
driving
noci
njem
classis
htm
nuovo
oud
##tence
##scy
tanks
mitu
doen
muss
regard
sprach
##rouge
leger
magia
precio
sawl
saber
nganti
faer
são
soos
vem
baan
mayor
brez
mto
lege
##taan
##iiy
bambino
riche
intensiv
baie
liter
yeux
hodie
bieg
sonst
measurements
viac
##xón
trasa
cite
prema
##onban
pasa
niet
fishes
egen
voie
boji
orde
maha
keine
##ánu
contacte
manufactured
olsa
chama
reveal
diru
kome
pek
musik
bassin
##hmt
doel
trok
langs
##ngiu
donc
mbi
##ettu
mein
eie
joan
##cchie
##vidas
tych
bord
jeunesse
patrol
wia
asam
##hkan
hlm
dato
##ninger
##itati
contained
Packers
##ède
highly
##ních
verbal
goli
Corso
Soest
osim
Angst
##namen
##oort
GALEX
##wyd
ond
Prefecture
##logie
##mutter
##tirol
##pfen
##ricos
politics
journalism
##lere
aluminium
##venir
##fronta
corporate
##anden
Président
visiting
##dicated
##siden
##atori
maintain
hori
values
Reinhold
schools
Obispo
accounting
Grandes
Sveti
Papilio
##uté
##oured
Siden
Asteroids
measure
##maja
##ivated
Ukrainy
operate
moments
##azione
listed
attempts
fifteen
Countess
conclusion
seems
eating
Geary
experiment
avion
Besides
authorized
Wirtschaft
acquisition
Seminar
##duto
Werte
##njak
##atina
Slalom
wealth
##ntly
unable
trends
FIPS
##tryk
Industri
inflation
##olata
Kantor
##vrier
doubt
arrival
##kast
Lingua
gisa
Industria
growing
Battalion
##schop
enjoyed
basin
clause
longitud
##jú
cooperation
geographic
Tots
##alles
tahu
##phylla
Kamer
Tode
charity
emotional
inclusive
sustainable
gamme
Newsletter
pagi
relations
achievements
feelings
Cahiers
aquatic
##lede
Rundfunk
##pects
Witold
Further
##kultur
##verka
personne
Haupt
##aigh
Veterans
##teral
chanson
##pagna
tracks
Lesser
instrumental
Disse
##owska
leaves
drummer
##kling
##icient
##rades
##ologist
pays
trainer
##estas
Donatello
follows
##éter
##niques
##chody
##llaria
organi
##éral
Electoral
veste
##sais
##ovanie
boreal
##trer
flows
regista
balls
##ônica
hunting
tutte
solide
alma
##cante
Minuten
##itari
##zcza
Somit
infant
Statue
Trentino
Adige
##zati
patas
Kepulauan
Beauvais
Koninklijke
limbi
##áni
maio
Sprecher
##geva
##cents
##veu
composer
Putri
actions
residence
##lsko
tapi
Quartier
Universiteit
engineers
##lser
notte
voted
discover
installer
transformation
Magazin
Staden
##itable
Censo
Deel
joined
inspection
relation
technologies
##gled
##grou
replace
##anese
##etar
Fluss
executive
impressed
##ranti
kolo
disaster
nerve
##dots
dauden
mandato
invited
##imas
noter
barre
novi
messa
mult
vain
arcs
##arja
restrictions
mortal
Gesellschaft
dalt
Overview
##rony
ono
##placement
sean
##vore
Fabrik
##edor
stored
##usly
contar
Plans
samples
isolated
arXiv
valley
Vorarlberg
##zán
tables
authority
marque
permanently
processes
names
mechanical
loaded
warfare
isolation
dimension
administrative
profit
murder
diagram
plants
Methods
##ugis
transition
trained
contest
meters
involve
danes
##ulun
tension
Pakistani
##prins
Motoren
quand
slova
destroy
citizens
Macht
currency
selected
Encyclopaedia
##kó
includes
##skim
adults
Updated
characteristics
motive
##plications
##ften
slightly
argument
##assen
binary
##olici
valid
##zó
##nación
És
sixth
##wny
segment
##vnik
vende
extrem
ended
details
supporter
linking
##sgol
eliminate
caused
significantly
speeds
Suche
duet
Anthropology
moth
Llobregat
antico
##ained
##ierte
femme
##udou
salva
divorced
##ficate
Biblical
##nhos
##rgau
cielo
##aching
##arum
uncle
Neubau
americano
candidate
##ciata
agora
Boden
noire
Although
fate
##alne
Homem
Doubs
##zeug
##edito
veu
nej
patio
boud
cutting
wheat
fallen
belief
Tempel
##lating
batteries
bound
beste
sacrifice
theta
receptors
east
nobile
##agem
posti
Ardagh
##weihe
Gwynedd
phrase
covers
##smes
##etaria
acres
creating
association
Occitanie
resident
##sitz
20e
##turm
riches
handed
##tett
Restoration
Karena
minority
Culicidae
refers
singel
Altenburg
armi
##stve
Evaluation
##micu
spelling
humour
religion
kills
novels
antar
##raad
##firmation
votes
category
gula
##ttir
humans
Spania
##patto
Chemin
Classe
owned
##pulation
Baile
##horus
Grote
##operative
beaucoup
danse
##mée
##êche
scores
universitaire
galerie
jour
##éria
mansion
Yvelines
Isten
##dangan
Pacifique
##ertes
##haft
vols
taken
restricted
##nnen
##ulaire
province
suites
##friedhof
arriba
##cense
Gales
captured
followed
remained
passer
compared
formation
##hraga
##iale
attacked
aide
Countries
##ék
Raum
sektor
##tivo
##lobus
rayon
uten
Norske
##runde
Dette
offering
marzu
Juozas
##teren
Hauptmann
Linné
##bré
##icata
##ssima
##dning
##odas
Friese
Djebel
inspecteur
##etre
Hérault
##émont
Melayu
##éologique
policies
sites
Coleoptera
##cidas
##askan
Anvers
##ctylus
##trangère
Saône
justice
Yonne
whose
Flugzeug
##rhein
genom
Aisne
Bibliotheca
Hieronymus
Bár
moderni
arrondissement
##geen
##vout
##unen
Miró
autonome
transports
civile
nomina
marcha
characters
among
##istique
##liny
##úr
Clarendon
##ussée
clave
represented
stad
##hany
Acts
barangay
maritime
Zoological
rasa
kalas
grosso
Podgorica
##tía
##cinae
descriptions
pave
##opidae
Belém
##tente
##stiti
##cines
##sios
Iako
deriva
##patan
concours
##tgan
##kket
##danna
Presiden
##maks
piccolo
##gune
##lagan
##vait
##ngur
Ity
sisters
economics
Nunca
système
Freiherr
serra
variation
magnitude
##liche
hundred
Seconda
##gder
Stettin
Pesaro
##ruppe
##gruppe
##nitz
Koblenz
##ficat
##primerie
##fde
generated
Villages
##perus
##rál
Soldat
##veden
##tzt
Castela
Tibetan
##vno
##ploring
minerals
interna
antigo
##koms
gana
defend
##posti
##pressa
Humor
stade
officers
biology
##nakan
##jski
Romas
Hampson
##egna
##baren
##zeti
##vissa
scientists
canto
Dauer
##hessen
##onyi
Raimundo
Kostel
##klub
##lnik
Universo
Formel
##minence
overcome
collected
Lebanese
Alcalá
Gracias
Piauí
imposible
void
wur
berne
##spis
regulations
nuclear
##quele
##lekt
Darío
Jerónimo
evolutionary
volumes
Louvain
Philosophical
Zoltán
approximately
historical
Geological
Cárdenas
##poser
##ício
climate
criticism
##iflora
fifth
alongside
Scuola
Waray
Emperador
episodes
featured
junta
Drôme
corps
##gebouw
describe
Lluís
Schulze
channels
raste
classe
kamu
Schotte
##áma
scopo
##rcio
astronomi
##brique
Secretaría
Ambiente
Ariège
##brana
Singapura
##pagne
##ény
Comité
Stazione
Conservatorio
Tervuren
##ecie
spiral
##zmu
defeated
ZWG
gradually
representing
Aosta
Nederlands
##desse
##ojas
typically
nucleus
Yr
interesting
Immigration
rubber
Kensley
##zato
cult
##volle
Iranian
##ached
conversation
Cubs
divide
longest
couldn
decisions
estates
spell
require
principal
Helsingin
##ancia
guided
vist
Kunth
Tests
Rooma
uses
perhaps
increased
travelled
traveled
##vater
##nnya
tubes
Fondo
mwa
Filme
tight
forti
ovo
dias
##éis
##deira
complement
accuracy
Franjo
objects
songar
Ultratop
WoRMS
Arbeit
Chrysomelidae
frontal
centros
Einaudi
Nicolson
preto
negra
conflict
actress
landed
suffered
wrestling
nuevo
Undang
instructor
reportedly
[...]
